/**
  ******************************************************************************
  * @file    colab_data_params.c
  * @author  AST Embedded Analytics Research Platform
  * @date    2025-03-21T09:43:19+0100
  * @brief   AI Tool Automatic Code Generator for Embedded NN computing
  ******************************************************************************
  * Copyright (c) 2025 STMicroelectronics.
  * All rights reserved.
  *
  * This software is licensed under terms that can be found in the LICENSE file
  * in the root directory of this software component.
  * If no LICENSE file comes with this software, it is provided AS-IS.
  ******************************************************************************
  */

#include "colab_data_params.h"


/**  Activations Section  ****************************************************/
ai_handle g_colab_activations_table[1 + 2] = {
  AI_HANDLE_PTR(AI_MAGIC_MARKER),
  AI_HANDLE_PTR(NULL),
  AI_HANDLE_PTR(AI_MAGIC_MARKER),
};




/**  Weights Section  ********************************************************/
AI_ALIGNED(32)
const ai_u64 s_colab_weights_array_u64[5635] = {
  0xbe1917a3bd94ce4cU, 0x3dea58a8be34526cU, 0xbe08e70ebdc066c3U, 0x3b522c803d325c18U,
  0xbd4db8c03d919ec4U, 0xbe10abea3e384d26U, 0x3e44381cbc2aa16bU, 0x3d21eecc3dd92a12U,
  0x3d89eb68bdcaabf6U, 0xbe835687beabe33aU, 0xbd9971d03e084827U, 0xba22df573d46460fU,
  0xbd411d29bda7d4f3U, 0x3df609be3e03ba23U, 0xbe7801113bdd6430U, 0xbde1a589be2585faU,
  0x3e500fcebc668790U, 0x3d7b28c73e003246U, 0x3d987c043dbcbc5cU, 0xbe083d75be020b50U,
  0xba4401003d8c0808U, 0xbdca9b40bda6fff8U, 0x3cfd2fe83e330726U, 0xbde642dd3e351392U,
  0xbe3f1bb6be401101U, 0x3d8048583a838580U, 0x3dd34f18be129074U, 0xbe7a926e3e2feca6U,
  0x3db7ca1cbb35ca56U, 0xbcf4c647bd92d2b4U, 0x3dcad9063ce52171U, 0xbd9cbf893d837dc1U,
  0xbd529ac43c9b6428U, 0xbe1722273e23fb0aU, 0xbd149c903d4a5358U, 0x3dde6270be27d255U,
  0xbd8ac420bd1cb820U, 0xbd8418283e3d06acU, 0xbcff19e8be49b258U, 0x3caf91783e2995f4U,
  0xbdbd29f5be540319U, 0xbe59ef2a3d95eaacU, 0xbdaf278a3de46b7aU, 0xbe374ac1bbe8a4c0U,
  0x3dfc6f44bc81bd40U, 0xbe467b23bd9b6535U, 0x3dfc99153d93138eU, 0x3e240c6ebb6ad4c9U,
  0xbda6a34ebe43e422U, 0xbe268d0cbe4db3a1U, 0x3e6e9538bda6389aU, 0x3dbe9f45bc476b99U,
  0xbdbe61583de260fcU, 0x3dddc231be0dc606U, 0xbe8e115ebce0cde9U, 0xbc4bdf54be84943eU,
  0xbf4edebb3dc81a27U, 0xbe36b771bc9c9397U, 0xbd8199283dd15bfcU, 0x3c630590be1aa754U,
  0x3d54c8b8bd3ffea0U, 0x3c401a20be2c465dU, 0xbd9cddfa3d8a9d5cU, 0xbdb56edd3d29c970U,
  0x3e0eccf2bd1fbf00U, 0xbd45b704be2d056eU, 0x3d7d60a8bbfa9540U, 0x3cf12290be326d66U,
  0x3c93bb793dd6e0f0U, 0xbeafc9693d6581a9U, 0x3de1d4643cc12588U, 0x3e2f7282bde270e8U,
  0x3e4c277abe0f2f4aU, 0xbe4f2f68be293bcbU, 0xbdf4cf64be5780d0U, 0xbe1100f5be1394b8U,
  0x3e4509ccbe2e930aU, 0xbdb1a4d8bd4ac6d8U, 0xbd4eabbc3e352928U, 0xbdc56a2c3e13851eU,
  0xbe47895e3e583b4cU, 0xbe521cf6be1882d6U, 0xbdb619bc3bbd71a0U, 0xbe2f7a72bddf13d9U,
  0xbba94fa03ddc8ae4U, 0x3dd8517b3e375227U, 0x3f154eacbd948875U, 0xbe91ace9bd2f46c9U,
  0x3d7cd0423ddef1a6U, 0xbdd1b22cbe56f8c3U, 0xbdcedd5bbe496cd0U, 0x3dafbe14bdfb4277U,
  0xbd9675783cb7dc48U, 0xbdd0716bbc439c90U, 0x3d448318bc32f2d0U, 0xbbbf9ce0bc409880U,
  0x3e4b28c0bdeb2ef8U, 0x3da051b8be099e06U, 0xbdf427bbbd624cf4U, 0xbe3095c53e2221ceU,
  0xbe53689cbe633d7bU, 0xbe9073073e04df68U, 0xbe47bf6fbe3a8ce9U, 0xbd30b0b0bcab0818U,
  0xbdf10a8c3e4299aaU, 0x3e04eeb63b6889f5U, 0xbe6e52893d203643U, 0x3d87f275be30161fU,
  0xbd91d7f03e5247a3U, 0xbe0727e3bcd928bfU, 0xbe09a65c3e3784ceU, 0x3d7022b0bca2c618U,
  0xbddc1bb4bca501e0U, 0xbd8030eebd911b5aU, 0xbe2e918a3e255dc2U, 0xbd2b9ebcbd848620U,
  0x3d4cfbc8be4c6177U, 0xbc795420be5426c1U, 0x3ce675cebdaf4961U, 0x3e2d9ce1be82ab0dU,
  0xbc5fae9dbd6cb408U, 0x3e0bae233d400183U, 0x3b34498ebe7b7543U, 0x3cf3af29bb978780U,
  0x3e41c512bd356380U, 0x3e62cd21bd3ca29bU, 0xbe032f093b59a320U, 0xbe1469e2be7458e4U,
  0x3de1cb5cbe3a01afU, 0xbde744333d3302b7U, 0xbdcfcf4abe7af856U, 0xbe67bed73e004278U,
  0xbe112d1cbe9070d4U, 0xbe1bf4f4be16aadaU, 0xbce1dc983da718c4U, 0xbd5e7b4cbe282744U,
  0x3e17514ebda4a484U, 0xbe0c84e5bd96cf74U, 0xbd0543443e3f9790U, 0x3d344310be18cdaeU,
  0xbc656a103e22f032U, 0x3e1c0946be126b00U, 0xbe7f6aa63d0b6898U, 0x3d91d53cbe66ef61U,
  0x3e6d580cbdae9595U, 0xbe328e1fbdd6cdc3U, 0xbd944c0cbdee0f0fU, 0xbe66fcc6be30535bU,
  0x3da6372bbe39cb5fU, 0x3e60a784be31c2c2U, 0xbd5b3ba4bcbddb60U, 0x3dd360d4bd3b3c50U,
  0x3e256d68be42b4bfU, 0xbe53de543d8e65e4U, 0x3d960b183e0777deU, 0xbdf559f4be4416d7U,
  0xbe610f363e230766U, 0xba621438be20930bU, 0x3b6a310a3e0dc9bdU, 0x3e4a73883e76194eU,
  0xbe51ad5b3d3e6b51U, 0xbcce9a61bb5d931eU, 0x3d814bfc3ea2e87dU, 0xbe3da179bdf956e6U,
  0x3d0748743dcd728cU, 0x3e5dfa69bc586b54U, 0x3d919d95bc804739U, 0xbe5be16c3e4f7c32U,
  0x3e1f37d2bdfc3f81U, 0x3dfde4c9bd66d0e9U, 0x3da5491c3e17d832U, 0xbd4675143e0df363U,
  0xbe202387be024b0bU, 0x3d87f762be1dc7d4U, 0x3dca03623dafd8f8U, 0x3dd0ab8e3e0175d1U,
  0x3eac7655bd6fdd66U, 0xbcb423bf3d21c728U, 0x3d09af6ebdb1f924U, 0x3cf7167fbbe1c44cU,
  0x3da101b03df251e0U, 0x3db76dc8be058eeeU, 0x3e1323b2be07a374U, 0x3dd4ec3e3ccd7585U,
  0xbdd3cafdbe23fed5U, 0xbd380d66bd3d09a7U, 0x3e0a8d3e3def1e2aU, 0x3cc3f7ebbe3e239fU,
  0x3cd30a613dfa4966U, 0xbea26e29be54ba56U, 0xbd8b959abde82a3dU, 0xbc3c0d30bdca2b3dU,
  0x3e104ef3be00efe4U, 0x3cbc4081be43174bU, 0x3e03f22ebc408de0U, 0xbe5313ba3d87f150U,
  0xb92f2c00bd5b86f0U, 0xbd0387b8be3a6211U, 0xbe252791bd7104b0U, 0xbe538924bde99fd8U,
  0xbe75dbd63e0613c3U, 0xbe8a65123dbe529aU, 0xbdbde5803df46ca5U, 0x3dcd7e3b3d1a3b0dU,
  0xbe72281dbe4f476fU, 0x3e1b43f03d31c491U, 0xbcd9a62e3ce6b74dU, 0x3df9cb3cbe94dd8eU,
  0xbe5561df3bbd9a00U, 0x3da4a614be06b854U, 0xbdc29337bbcc76e0U, 0x3cbf0e00be44f05dU,
  0x3dc32727bdc35750U, 0xbcf810da3e2e31c7U, 0xbd46e1973e237ddbU, 0xbe94ec403d932d24U,
  0xbda996b23d873452U, 0x3df573653b77f545U, 0x3d3ee95b3dba6fbbU, 0x3dceceaabddf166dU,
  0xbe07bc16be669a7bU, 0x3e0bfd5d3e1dffd5U, 0xbe731ee5bce2a86dU, 0x3e017630be85c55dU,
  0xbbc73c6bbecf4ba6U, 0x3e4c9518bd778b68U, 0x3e1c2de0bd65b218U, 0xbe173556bd44bb6cU,
  0xbe4f8c1b3e071614U, 0x3e1819223d29ca80U, 0x3daf4cbbbcbf427dU, 0xbd981332bc3f6774U,
  0xbde0514dbd347803U, 0xbdf1019abdfd6d61U, 0x3e0b57dcbe09e3acU, 0xbe5e60e83cb6ba47U,
  0x3df1b6aa3e11736cU, 0xbe454794be099611U, 0xbe53d469bcf69d50U, 0xbe0a136cbd738e40U,
  0x3ded644fbe315d77U, 0xbe2dcc513d62665dU, 0x3e4d5220be77c06fU, 0xbda8cf3cbe5776dcU,
  0xbe00e0d23c5faa60U, 0x3dcf5bdf3e037a6fU, 0xbe90ad3c3d868162U, 0xbc8f1280be7dbb74U,
  0xbdb731e43d7985f8U, 0x3e299cfabc7e2130U, 0x3cf6c3a83e4d87d8U, 0x3e32c606be432998U,
  0xbd36d42cbe4920b1U, 0xbe4d53f8bd35ba0cU, 0xbda483403e322f72U, 0xbe213e60be27917cU,
  0xbe0109c6be0ac0d8U, 0xbdee350d3ca02168U, 0x3d71056d3c43922dU, 0xbd002867bdf7d46fU,
  0xbcc9a1d8bd08fd18U, 0xbc1c5980be3812f0U, 0xbddeb503be1b8194U, 0x3da6b76bbe4f02a9U,
  0xbcac6d05be8325f0U, 0xbda3a450bcd741d8U, 0xbe48dde1bc8120a0U, 0x3e1a38cdbde2d97cU,
  0x3e1cdc4abe1af390U, 0xbe0d73173dcf7f25U, 0x3e2a410a3dbfec88U, 0xbe25719dbe272d75U,
  0x3d8af91e3d5f8c80U, 0xbd0f4bbc3d159210U, 0x3e02c4303d0890bdU, 0x3c8d2ec03cfb3a20U,
  0xbd63c4ccbd9af44cU, 0xbe3006fdbe34afa7U, 0x3d83e93dbdaaf1a0U, 0x3e3d5ec9be299696U,
  0xbb56e7903dcb266bU, 0xbd386d403d27f67fU, 0x3bc809e0bddb8ba5U, 0xbe1956ee3de3d688U,
  0x3d8dce2cbd2fa548U, 0x3d753e603b9941a0U, 0x3e15133cbe2d97bbU, 0x3e03d05cbe474d0fU,
  0x3be5161abe5d3839U, 0xbe09a6563d031670U, 0xbddfd8453d958b75U, 0xbdfec5133d58fcdcU,
  0xbe40b7683dec6a85U, 0xbe0e59a43d83df0cU, 0x3cab7c78bdff84bbU, 0x3db11dfdbe4247f0U,
  0x3e5121483d21b560U, 0x3e04f9a4be2d7016U, 0xbdd3317dbd8e03a2U, 0xbe19d44c3db47e08U,
  0xbe7f49003de2a5a6U, 0x3e4a7f583dedfb7cU, 0xbe4f549a3e0c56bdU, 0x3d876437bd91f366U,
  0x3da24369be3eeae6U, 0xbcfd9350bd97480aU, 0xbe3dd410bae3fa00U, 0xbe4118643b570d80U,
  0xbe1d7242bddd2715U, 0x3e07415e3e06fca4U, 0x3e265efebe36964fU, 0x3e33b67cbe37fb5cU,
  0x3d182d3cbdf0f86aU, 0xbc667767be077fbdU, 0x3ebeb58ebe6f7391U, 0x3a8311803d3b52e0U,
  0x3e18bfb0be2e371fU, 0xbe665868bd19437cU, 0x3d9e4bbcbe483f8aU, 0x3e1acf18bc4a3c63U,
  0x0U, 0xbd7fe9ccbb1da8a8U, 0xbcb9508fbd341932U, 0xbd7a583200000000U,
  0x0U, 0xbdc5087c00000000U, 0xbda53e91U, 0x0U,
  0xbda19c06U, 0xbc9c3194U, 0xbdc489f73d291bd4U, 0xbd404b54U,
  0x0U, 0xbcd93ff900000000U, 0x0U, 0x0U,
  0x0U, 0xbdc228233c35632cU, 0x0U, 0x0U,
  0xbd10c0c5U, 0xbb4fa43fbd1003c2U, 0x0U, 0xbd4bca5300000000U,
  0xbcce9a86bd953a88U, 0xbd9d35d13c97f439U, 0xbd58312eU, 0x0U,
  0xbd1c51e400000000U, 0xbd7aa8fd00000000U, 0x0U, 0x3bfa16a8bc925197U,
  0xbd00e5a2U, 0xbd66efc93cd51345U, 0xbd18f61bbd471870U, 0xb990a8d9bb3b2c96U,
  0xbd1f7f4b00000000U, 0xbc6e05b9bd39e05bU, 0xbce4104c00000000U, 0x0U,
  0xbdf9bb20bd6e1cd0U, 0xbca330daU, 0x3c71cffb00000000U, 0xbd681489bdbe679fU,
  0xbd7db949bd8f110bU, 0x0U, 0xbc8a53fdU, 0xbd17686aU,
  0x3bbeba2aU, 0xbd2a7e72U, 0x0U, 0xbcbb384b00000000U,
  0xbd2f771400000000U, 0xbcff23d300000000U, 0xbd208f1e00000000U, 0xbc9fe30300000000U,
  0xbd9ad3a7U, 0xbc0d86df00000000U, 0xbb169d56U, 0xbc21382eU,
  0xbd88659ebd3c60e6U, 0x0U, 0xbd34e29a00000000U, 0xbd3c414300000000U,
  0x3ddfb1723ddcaf92U, 0x3d9895fe3e2e3dfbU, 0xbcb8088fbc811905U, 0x3dcf32583c61f6a0U,
  0x39fdac003db10b7eU, 0x3c568c6b3d81a074U, 0xbd6e492cbdc6d135U, 0x3b8fcd60bde95b79U,
  0xbd6d0bba3cf0e62eU, 0x3e1c2c393d7d00acU, 0xbdab253cbd13c320U, 0x3da0078e3d1a4da3U,
  0x3d1281643d2f8360U, 0xbe7482bbbd8b9d98U, 0x3b90b6c0bcf1a868U, 0x3e302917bc4e1cd0U,
  0xbdcd39e13dc50ec2U, 0xbe1af00bbebaabcaU, 0xbe1ee2543e0829abU, 0x3de466a23d8937d4U,
  0xbb5c7240bd488eedU, 0xbaa2fb973dbc77dcU, 0xbb82b0603de8b27aU, 0x3e4c6a423e00a09dU,
  0xbdbc5ddfbe122b50U, 0xbe0173a4bea3028bU, 0x3dac1b72be3d4f93U, 0xbcdba648be2d33edU,
  0x3e0b5cadbdcc9a84U, 0x3e1e30893ddadb7eU, 0xbd0d9d5cbdf3b54aU, 0xbca6169c3d8358a0U,
  0x3ddb639e3f008f5dU, 0xbd751bd8bd5889e1U, 0x3ddbfa6f3d0581c4U, 0x3d9e28f9bb115f44U,
  0xbd181bfc3e065ca9U, 0xbd5b70eebcc64d0eU, 0xbc65e2e2bdefab96U, 0xbd1c674cbda0f7ccU,
  0x3d8d8de53e09fc43U, 0xbc6c6370bd0b637aU, 0xbdc343f63dd6eaceU, 0x3dedc1caba539037U,
  0x3dc17543bd83dfa5U, 0xbdf31674bdc527cdU, 0xbc622880bc485d98U, 0xbdae964c3c8e5e8bU,
  0xbc8d95d8bd8c0ebcU, 0x3e0c73d93d91eb77U, 0xbe006e9cbe232940U, 0xbdbae24b3e2ff725U,
  0x3d68f65d3d65c590U, 0xbd094d493d50df68U, 0x3d53eb513dcc44f6U, 0x3d941bbfbd6dd7a4U,
  0x3e21d1993d78b58fU, 0x3defe42d3c9b97d8U, 0x3d3fed243d3142beU, 0xbe2567d2be769604U,
  0x3d3b5db1bd84f6adU, 0x3e0da2f5bcb641b8U, 0x3ec58320bd8f664fU, 0x3d1368413d870082U,
  0xbd8a1babbd09beccU, 0xbdecc04fbdfec8deU, 0x3dd6a619be03930fU, 0xbd60cce43bf60dc0U,
  0x3cd08ee83dce3202U, 0x3e21608dbe2bf5a4U, 0x3e2a182f3dfceeaaU, 0x3ce4de403e318f79U,
  0x3c582a303de65356U, 0x3e14b48f3e13658dU, 0x3d5e1bd1be0ff988U, 0x3d67b28c3e43c70eU,
  0x3e13ec093cdf1db0U, 0x3bc31d433d0fd948U, 0xbe23df963d601a18U, 0xbe3360cebdbafc0fU,
  0xbdcfcd803dceb246U, 0x3d078a663d1673c2U, 0xbdef116abdd9667fU, 0xbd04907c3d0671f0U,
  0xbdedca183df82420U, 0xbe034f61be08a26eU, 0xbd784ef43bc95500U, 0x3d7d4a32bcebf0f8U,
  0xbda9dd9e3cfc56b0U, 0x3d058dd9bd265629U, 0xbe29a3923cdfd7ccU, 0x3daace563de164deU,
  0x3e2e5dbbbdb7763bU, 0x3dc29bfb3dae4d7eU, 0xbb2712c03e256349U, 0xbe1e03c3bc7f6acdU,
  0x3da848ea3d85ba9cU, 0xbcc4c802bc80fd3fU, 0x3e3129283c5054b7U, 0x3de1ff813e11a66cU,
  0xbdf630023de8c8daU, 0x3ca63f1abd5da1d4U, 0x3dd5ac173da42fd2U, 0xbdf2f878be241c7cU,
  0x3d357ddd3d653ac1U, 0xbd520bc0bc336657U, 0xbe91c7093e268133U, 0xbd87503a3d59e2fbU,
  0xbb92ba883d8299bbU, 0xbc2d60f03be9af60U, 0xbb69ef00bd2915c7U, 0x3dfe15463d3dd5e7U,
  0xbe15c3c83e2efdf3U, 0x3ac5a880bd8f7e1cU, 0xbe286957be33ed1dU, 0xbda4ff1dbdfa6a58U,
  0x3e6a81e5bd96106dU, 0xbdf2079f3df9ce3aU, 0x3e015db7bcdaeb10U, 0xbd28721d3dd4e7e6U,
  0xbdf0474e3da9f72bU, 0x3dcd4df43de97a8aU, 0xbda778aebd802818U, 0xbde7fbf43ca0290fU,
  0xbd20fb4cbdce08e4U, 0x3dcf86463dc59012U, 0x3dbddab6bc9ca848U, 0x3e2adb043da640faU,
  0x3dacc5ca3d587324U, 0xbe084633bd082778U, 0xbd30e9fbbcb1ff77U, 0x3d06906abe2e7214U,
  0xbe202cd03de48746U, 0x3da9d7cebdfe7cbbU, 0xbdcea9333e142994U, 0x3b8695c0be07a226U,
  0x3e2e5d1f3ce31e0cU, 0x3dc2849ebd8ef10bU, 0xbdca9262bbdb513fU, 0xbb08c1803d54e630U,
  0x3dea8e323d9f78a2U, 0xbe2bed77bdb5fcf8U, 0x3dd5d5c63d0b35c8U, 0x3d8028463e15be41U,
  0xbdfbde8cbe2f725fU, 0xbe27ff32be4c957eU, 0x3dd8dd72bcf56e10U, 0xbd447984bd897772U,
  0xbbb98ca03e0c2a70U, 0xbd45b33bbcbebfc6U, 0xbb434b40bd8392beU, 0x3d8546113d9cef3eU,
  0xbdb1be833d566171U, 0xbe3aa6cd3d8a2060U, 0xbce65f88bd51c3cfU, 0xbcf62f303c4166c0U,
  0x3d6a7cf33d834f70U, 0xbd3083dfbe27dbebU, 0xbd84520fbdea788cU, 0xbe1b1d613de2e218U,
  0x3e09958dbd0efb20U, 0xbd246d21bc5483d1U, 0xbe20ac98bdf5128eU, 0xbdf17bb03e07cdd2U,
  0xbb0fb9483d28cc94U, 0x3daaf066bc9cf585U, 0x3de6920c3e142a3fU, 0x3ded1a9a3cbee168U,
  0xb9fa8d65be0fb93bU, 0x3bf177a03da00e40U, 0x3e03bf563dab6b66U, 0x3c3e77e6bddbb976U,
  0xbd5abb7ebd429183U, 0x3d31c5383dc62c4eU, 0xbe12195dbbe67409U, 0xbe2438b63d1ace19U,
  0xbd9cef713cd01d4eU, 0xbd6cd38ebdab72f1U, 0x3abd7a00bd229510U, 0x3b48c3a2bc262be0U,
  0xbe03692c3d8ac8c8U, 0xbdaa1c82bdb0f411U, 0xbc532aaabdfcf060U, 0xbdfbbdffbe143e4cU,
  0x3dbac7e23e0aa263U, 0xbd17edb0be204fb1U, 0x3dafb34ebd0a2ee7U, 0x3dd0b0e23e0c0214U,
  0xbcab2aef3e0d4bbfU, 0x3c6b73603d5bf520U, 0xbdf2b422bd1fcd5cU, 0x3d93b43fbe102ae0U,
  0x3db185823db99512U, 0x3df350ddbdaffc44U, 0x3cd3f193bd2ffea3U, 0xbd41495ebdf0e63aU,
  0xbd9a18ab3dddf9aaU, 0xbdf072ce3dc8fe0eU, 0x3c3941503de0aaebU, 0xbdff7213be1f99bfU,
  0x3e1f5053be318983U, 0x3e12348d3e10b137U, 0x3d1dac0d3e114df8U, 0xbe10c506be3b7861U,
  0xbe339cb6be0072fcU, 0xbcfdbf263d2ebb94U, 0x3d21ba403d3bb71cU, 0x3e1240853d75fb14U,
  0xbd392dc43da0161eU, 0x3da785c73de9f3ceU, 0xbe1575d8bd6b631cU, 0x3d2a04a03df04c52U,
  0x3dfa21723d2d27edU, 0xbd328ffcbdf6939eU, 0xbdd90c57bdcb5b4dU, 0xbcc73be8be34401cU,
  0x3dea8dba3e0f3fe9U, 0xbd6ecfd8be0ab66cU, 0xbb30ee803e204842U, 0x3de4a406be0830a6U,
  0xbe350617bd979fcfU, 0x3c53adebbcaaa868U, 0xbd849edf3e2fff09U, 0xbd062e17be304c02U,
  0x3e178ed9bdd9274eU, 0xbdbd957a3e0d581fU, 0x3dd93be1bdb0f569U, 0x3d058ecd3d88f3f2U,
  0xbe16c1ff3e271a4bU, 0x3d8c5ea63dedbf87U, 0xbdf29124bb886320U, 0xbd509f8cbe2bf3cbU,
  0xbd380df9be1e3123U, 0x3e0b4af3be22d64dU, 0xbd8e2c5abdcb2387U, 0xbe27f4323d25381bU,
  0xbdf6545bbd0c4288U, 0xbd4d21783ca81d18U, 0xbd8c13703df6090eU, 0xbdd0a79e3e087522U,
  0x3bb157c0be4218baU, 0x3d74a84cbc78e5a7U, 0xbcaf47c0be0a3feeU, 0xbe11c8c53e2d3839U,
  0xbe2e3f08bbc33060U, 0xbd0866063e099667U, 0xbde3a8b6be0206e0U, 0xbe0bb619bd2f0260U,
  0x3d9d2402bdc037bdU, 0x3ce01200bdb16b42U, 0xbd9e148a3e1f2f6dU, 0xbc1135d0be120ab5U,
  0xbe337cfa3e0fdfb5U, 0x3e27496d3e0c2cbdU, 0xbde74037bdeb1f3aU, 0xbd01e3b63ce7b1a0U,
  0x3dfa41d23caf2af0U, 0x3dc4f69e3e21dbaeU, 0xbdaac7c4bd283790U, 0x3de5beb6be0ff2e7U,
  0x3e1b12273d72ac1cU, 0x3ded831fbcc8afe8U, 0x3e001917be3aee30U, 0xbddd4ea23e0a8df7U,
  0x3e08e2b5be010b27U, 0xbdcd9085be0e8de9U, 0x3dd3d510bcf815abU, 0xbdc42d7cbe452bb5U,
  0xbe047c2e3d123ab8U, 0xbd4d3ddbbe21123cU, 0xbde856b53dbaba1eU, 0x3dcf371a3d881234U,
  0x3dd982b6be2d9f27U, 0x3e1bca743d752940U, 0xbda4b1d13e21f519U, 0x3d8a5e2e3d6a9948U,
  0xbdfec43cbde86d67U, 0xbd8da7e23d1ad80aU, 0xbe2a47d4bd045844U, 0x3c80726d3d8fe56aU,
  0xbddf391a3c462365U, 0xbda8b06c3d8f8b7fU, 0xbbefbf80be251e01U, 0x3e186109bd19c424U,
  0x3e2bd0523e195fd7U, 0xbe090b0dbe22af92U, 0xbca18630bd277fecU, 0xbdc4cb4d3d9d2451U,
  0x3cb868083dd430a8U, 0xbe0f86be3d2f39f1U, 0x3da52438bdc8894bU, 0xbe054391be1a57f9U,
  0xbd997ae1bd873b98U, 0xbdfff004bdf9b994U, 0x3d3426823e2ca097U, 0xbdea7f77bdb1be47U,
  0x3db41318bdeae888U, 0xbd9b5cdb3e1fb69bU, 0xbbaf21e33df7d186U, 0xbdbca9c9bd9987cbU,
  0xbe19afb2be07fc40U, 0xbe084ed33d2ee4fcU, 0x3e00d7ef3db9b126U, 0x3df550c23e0e4ba1U,
  0x3e19e7f5bce78ea9U, 0x3da9530a3cbdcaabU, 0xbe147f683ddb1066U, 0xbbae5576be0b188fU,
  0x3d2da71bbcafd6d8U, 0x3d02aeefbe028eeaU, 0x3dd40702bd8a5684U, 0xbdd53bc0bd817fd1U,
  0x3cd0cda8bcf04119U, 0x3cb5bca03df2d52eU, 0xbd1d38143df61e05U, 0xbd76e4c8bd9aea00U,
  0x3ad7c744be0772ecU, 0x3e0c0e093e25d32bU, 0xbdf26209bd1d7c38U, 0xbe03a1c93e13227bU,
  0x3d3051183e236f43U, 0xbd887c7d3d1c3940U, 0x3deaf1ea3d60dd62U, 0x3d2ce100bb1bd080U,
  0xbe00a9853db544e6U, 0x3e0a9df5bdca33aaU, 0x3d9ade16bc1e2f0eU, 0xbe11c18c3d04f188U,
  0x3e1ac4213e186e8bU, 0x3e330b2bbe4986c5U, 0xbda91147be2b36d3U, 0x3e0031373db69f8fU,
  0xbdbc6394bdd15cbaU, 0x3e0308403e34c591U, 0x3e2ee2d7bd19982cU, 0xbd334e683e27be69U,
  0x3e0349f73dd8588eU, 0x3e206160be0d63a2U, 0x3d363bd0bdadaaf6U, 0x3ce6c9c8be317fd2U,
  0x3d8f36123e110ecaU, 0xbbb1d81cbd908101U, 0xbd015c60be332130U, 0x3d3766c53d03ad60U,
  0xbc070e253d3554c3U, 0x3d563548bdd9bcabU, 0xbd8e23733dabd42eU, 0xbd97cc4abd41b2ccU,
  0x3d80fcfc3dec9bbeU, 0x3db02772bdf53386U, 0xba043d003e1f1245U, 0x3d8b5680be264f0fU,
  0x3d7e39183d8699adU, 0x3dd2adb6be3ffc1eU, 0xbd59fef43de496cbU, 0x3d87db423c7174e7U,
  0x3daf0607bda66bc2U, 0xbd9a7c3abe3ec4f1U, 0xbdff9a143e1cd5f5U, 0x3cfa7b58bd85bce5U,
  0x3d4acaf5bd076a39U, 0x3dfb9cc23cd01742U, 0x3de779863e0b878dU, 0xbd9b58b6bc49b2a7U,
  0xbdc1da92be1ba405U, 0xbe33277a3cfcdfb8U, 0xbda5052abdade0efU, 0x3ddf0406bdd2157dU,
  0xbe1f70e3bdbec91dU, 0x3d80d3babe202442U, 0x3e12c473bdb55db7U, 0x3d194db83d46c24cU,
  0xbe44a595bdaf2489U, 0x3c69c55fbd93bb3bU, 0xbd54a443bd01ab44U, 0x3dc8ae73bdf6bcb3U,
  0xbdb9ba3cbd12bb1fU, 0x3d4356c8bc6af500U, 0x3e12e9d1bd867268U, 0x3c70b450ba002a89U,
  0xbe3232e5be13e124U, 0xbe2169f63dd5d1aeU, 0xbe4bbd163b6f8340U, 0xbe12a8e33e29f527U,
  0x3e07034d3e1ff2a9U, 0xbd9e9bc03e029547U, 0xbdf821fcbe0f9ed8U, 0xbe0fb21d3deb20b6U,
  0x3c8614083bdf61e0U, 0x3de58bf63cc4ec90U, 0x3c6f4da0be1885e2U, 0xbdb2f96dbe31a87aU,
  0xbcb1cec0bc59a3f0U, 0x3d5510c03c18ef10U, 0xbe0d19f4bc8dbb40U, 0xbd75ac8ebdd5a4fcU,
  0xbc64a1003df51bbaU, 0x3da1247e3b49b100U, 0xbd53eb88bde259a7U, 0xbd1d8ec8be19d71eU,
  0xbe311c7b3d4374dcU, 0x3ce4d3a83d16a0b4U, 0xbc877a583e28d721U, 0x3e2e075f3ddb1482U,
  0xbd5b7e823bb8ad80U, 0x3e1680813e115fdfU, 0xbe0a4487bd5757dcU, 0x3d381f403e021839U,
  0xbccaf8403da09d12U, 0xbdd0d485bcaa2788U, 0xbda095ff3e00cebbU, 0xbd65cd56bda5e568U,
  0xbd7a031c3d7faa28U, 0x3dc5467e3c796800U, 0x3e130e5d3d97f79aU, 0xbe2487d83c003490U,
  0x3e045afdbdc7de56U, 0x3caa4a48be0ebcd9U, 0x3dcfc816bdbe5d89U, 0x3d49b38c3d6b2dd0U,
  0x3dd9fc963e0c0a09U, 0x3e0368133e00bd6bU, 0xbd224f803d412114U, 0x3e059721bd7e2748U,
  0xbdbca4c93e24eda7U, 0xbda36470bd897427U, 0xbd40d5bc3dcfdc4aU, 0xbb6590403c6b96c0U,
  0xbe229695be1813cfU, 0x3e2cf565bd457260U, 0xbd80d4583d687accU, 0xbc53d5d0be0e7f7eU,
  0xbdb18cde3ddaf53eU, 0x3daf464e3ce06980U, 0xbe2c3ed63bdf04e0U, 0xbe252023bd855e79U,
  0xb8cdf0003e18f585U, 0xbdf8eb883cf6e928U, 0x3cbba878bc549400U, 0xbda4a5333e24bdd1U,
  0xbdf2623cbc240ed0U, 0xbdc9e006bddbe219U, 0x3dba5dcebe2a739dU, 0xbdac5ab0be33a6c4U,
  0xbe09b417bcb2aaa8U, 0x3dd08faabdaec2d8U, 0x3d740c783e1a41cdU, 0xbc8c38d03db7fb76U,
  0xbdee92d83e1e58bdU, 0xbb5193773e016d2dU, 0xbdc799d8bab7e01bU, 0xbe076805bd967092U,
  0xbe2745013dddac92U, 0x3e1b519a3e047d7bU, 0xbdafcf803dc84c60U, 0xbd7cc36e3ccfe1e8U,
  0xbd870c813c83a255U, 0xbd432d443db71bb8U, 0x3ca025e4bd878a4cU, 0xbcc0ecf03d9187d2U,
  0x3d8be52c3ccc1340U, 0x3e1ad904bdf3c966U, 0x3c1a16b039e3a400U, 0x3dbe7ffa3d5bfc98U,
  0x3dad79ca3d8c9712U, 0x3e16b2903dc2558eU, 0xbc8d68b0be131112U, 0xbe1ab8ffbd53c388U,
  0xbcb7c7183e27702dU, 0xbe2cc84dbe01b67aU, 0xbda896103d3a7548U, 0xbde74ca4be2e0b92U,
  0xbe1e52f7bd66b571U, 0xbe2caea63de9cbffU, 0x3e157ac9bd8e724bU, 0xbdabe8b13e204855U,
  0x3c552e6ebdd11593U, 0x3e0cdb68bdec8b0eU, 0x3d3c221c3daf2aaeU, 0xbd068e19bcc51124U,
  0xbcf94578be04a585U, 0xbe0b5cf0bca1c612U, 0x3d22981cbda09961U, 0x3d806849bd84db16U,
  0xbe2ffd3ebd150a28U, 0xbd3ff2ef3e001bf2U, 0xbdb2b536bcbebb38U, 0xbda9d0923da89f42U,
  0xbde202f8be03888bU, 0xbdeb60153d5fb1e8U, 0xbd4497d8bd4f7eb4U, 0xbdaf7439bd8060abU,
  0xbd3d57e83d1482baU, 0x3d458f98bd5d5f78U, 0x3d4c1e20bca14868U, 0xbded8a96bd6e4788U,
  0xbe34f071bd191c3eU, 0xbc39bc303dfd9fc2U, 0x3e3395dfbda06cf6U, 0xbe2a715c3d180b38U,
  0xbe2b847f3e008681U, 0xbca53a763db2f18eU, 0x3d2951083dd6cdd2U, 0xbc092b483d3dcdb0U,
  0x3d958a84bd585931U, 0x3d2d8cfcbe2cb13bU, 0xbda982643e04ee46U, 0x3d86eddcbdb679d4U,
  0x3d7a0248bda7b775U, 0x3d901810be0f77caU, 0x3b48aa003dad7d22U, 0x3e27febd3e1596bdU,
  0x3d7f34f4bde7627dU, 0x3d76668e3cdcc7f9U, 0x3da9030bbe0e1740U, 0x3d1d13fe3b73a740U,
  0xbdd12d653da86452U, 0x3d9c9b0bbe29c712U, 0xbcd282603d6e9a81U, 0xbe2bcb36be2e4591U,
  0xbbb48c00bd756742U, 0xbe2c3d0f3d33bc0dU, 0xbdb453103dcb1454U, 0xbddaa5e33ecebe48U,
  0x3d08ca243e07e2b1U, 0xbd8d5799bdad2e78U, 0x3d31e7403e08df01U, 0x3d927beebda6c677U,
  0xbc93f1403de5bf42U, 0xbdee33f4beba05e8U, 0xbd84694ebd7eff0aU, 0x3de77ca2bd0c04a8U,
  0xbe17ce833e2808f7U, 0xbe1549e0bda2f503U, 0x3e22d575bdd1c2baU, 0x3dcdca88bdb0a161U,
  0x3d88df83be3865a9U, 0x3e13c6383d87f2a8U, 0x3c482cc0bd696e21U, 0x3dd7a5963d85dd9aU,
  0xbd8afcf4bdeb750dU, 0x3dbb27c03dd8482eU, 0xbd0529703df77ef6U, 0x3d1a4912bdbf6a96U,
  0x3c9434e03e985f45U, 0xb9ebf0723e033447U, 0x3e09ac2c3ab210edU, 0x3d34c5b7be9cc9fdU,
  0xbe1f865fbdabc4b2U, 0x3db647ce3cb8491eU, 0x3e0f0dac3d603604U, 0xbd1490703dc723aaU,
  0x3d14ddda3d94c75aU, 0x3b1e2e003d5620a2U, 0xbda6f2ff3bc007e0U, 0xbce73b73bd242225U,
  0xbd82d5503d9a3339U, 0xbd456cf03d9a8baeU, 0xbcd0a5403d29671cU, 0xbde7bfbd3b9a081cU,
  0x3cb2fc883e02ea87U, 0xbe1a327abd469ea4U, 0xbcc3a9d8bd9643e4U, 0x3df85d643e140d11U,
  0x3dbe8a8b3e11cc77U, 0xbd6a93083e0af4e9U, 0xbdf7a66b3d8bda30U, 0xbd2bfa04bd92f11cU,
  0xbc95c8003d89046aU, 0x3e0c94063cbf9e60U, 0x3db2f76ebda58313U, 0x3ce35b183dcdbc1bU,
  0x3dbeb731bdacaea3U, 0x3dfc439abdb0d3acU, 0x3e6a018a3db3a722U, 0x3d12a20dbe1768ffU,
  0x3d95f9b6bd94c4d1U, 0x3c2d38dbbcf90f02U, 0x3e0aac90bcb33c92U, 0x3d8e16ca3e0610edU,
  0xbbc7fc00bbe2bf80U, 0x3e0fc5e2bcb09540U, 0x3e24bfb9bdec902fU, 0x3dbcc4aa3dc65876U,
  0x3e1386413d9214c7U, 0xbd27e160bde02366U, 0xbdbc6bd4bdb46169U, 0xbd91cf10be15d722U,
  0xbd8925bbbd999701U, 0x3c102170bc376b10U, 0xbd4423a83e160b39U, 0x3ce077903cb8e358U,
  0xbe206274bd890ce4U, 0x3df8bef1be5c2fc0U, 0xbd35f6a43d55ced8U, 0xbcb85798be28de0bU,
  0x3d98108ebbeed0deU, 0x3e0d0679bdc9acc8U, 0x3cf330283d433a38U, 0xbe2d94dd3d3cd7bcU,
  0x3e0fe5bdbe2c6a76U, 0xbd2d27babd6cde95U, 0x3de44612be23dc8bU, 0x3d4be6f8bdbe27edU,
  0x3e333510bc0df020U, 0x3d125c183e179c59U, 0xbc867760bdfc6c80U, 0xbd1fb9b4be0b8369U,
  0xbd87a9febaf75534U, 0x3d7ed14f3adeee01U, 0x3e01f4273d82d436U, 0x3d584c03bdf6c129U,
  0xbdfb52ad3a8f0780U, 0x3dc9ed21be187031U, 0xbd1df3813e16806dU, 0xbe0e872fbc519580U,
  0xbe2e4e1cbd776316U, 0xbd11e168be03732eU, 0x3d48420dbd610fd0U, 0xbda259b33d9a1f5cU,
  0x3e27b8db3d8592d3U, 0x3cf9a3703d7b7d30U, 0xbdc6c8ba3c7aaf04U, 0xbdcc89533d821c3aU,
  0xbd768de6bdaa8ae8U, 0x3d2d37a4be00a294U, 0xbe2fa6dabda2a7edU, 0xbcb8371ebd0e8e7cU,
  0xbd3b96a1be22ccafU, 0x3d99f478bd85828fU, 0xbd484eee3bfadd80U, 0xbddcd7fdbe00928dU,
  0xbe137888bdd84d3aU, 0xbca1ec1dbd386f10U, 0xbe04b358bdb392a7U, 0xbc08d530bc937dd9U,
  0xbde229e13d0720c6U, 0x3d52c554bd77dd82U, 0x3ceb0a83bc13ee80U, 0xbe0e05cbbe339385U,
  0x3cfdea083cd27bd8U, 0xbcd7a3903e1a8c3fU, 0xbe33c35fbd34819cU, 0xbde4eb1c3d4f8c7cU,
  0x3d0847543c915e28U, 0x3d420bacbd9d5d99U, 0x3e2bb687be11f032U, 0x3d2a4e7cbc4e4c30U,
  0x3c2148803e2748afU, 0xbc95cc00bdc070c5U, 0x3d34c27cbe1f2168U, 0xbe3169d8bd08afb4U,
  0x3d50eba83e00b88bU, 0xbcf0fc98bcf43928U, 0x3e0c61ad3caedca0U, 0xbdff210bbdaa4917U,
  0x3b616480bd40aeecU, 0x3e322a7d3bb399e0U, 0x3dfc336e3d5df0f4U, 0xbe25429bbd113a14U,
  0xbe337ff9be235213U, 0x3e34ceab3dd6bb86U, 0x3de881823dce818aU, 0x3cd8b9883d938d34U,
  0xbe20406abda94069U, 0xbdefa4e43d709844U, 0xbdda11d6be00aa18U, 0x3dcc306e3d85db52U,
  0xbe2272713e2cfe55U, 0xbbed10e03e23fdedU, 0x3bb6de00bda2a278U, 0x3d89fe0a3cc67588U,
  0xba290b003d5d9590U, 0xbe20c6e83daf96e2U, 0xbd83ea18bc978758U, 0xbd8052f13cd799c0U,
  0xbdd41704bd19263cU, 0xbd087274bdf35fb5U, 0x3d651df03e32eb79U, 0x3e18877f3dffd81eU,
  0xbcf99ba8be140f82U, 0xbddf9d0b3d480874U, 0x3d3452303e137877U, 0x3d60af34bd136ffcU,
  0xbd0256603d597d24U, 0xbe1e0a92bddaf0ddU, 0x3b2030c03d1ff52cU, 0x3ddb7532be07017aU,
  0x3c8ce2f0bdbccaedU, 0x3e150c7dbe14a304U, 0xbd6acde8bdf0a566U, 0xbdace1f8be28e7abU,
  0xbde05966bdf50c31U, 0xbe16ff51bd957844U, 0x3dcdd102bc8f5f18U, 0x3db67976bdc43100U,
  0xbd1c8ff4be186087U, 0x3e03f433bd463f9cU, 0xbc3d4d60bd7e47b8U, 0xbc88e350bc158870U,
  0xbd90f1e43d8d8f94U, 0x3d4c4fc43e24c7cbU, 0xbcecd4503d5cd2ccU, 0x3dd0d996bdd2da41U,
  0x3e1115b33dc1e1e2U, 0xbda09dbe3deff2e0U, 0xbceb1c33bcfe7d14U, 0xbe133db3bd8ffcf2U,
  0x3df9df863e2b9b55U, 0x3e086eefbdb8945eU, 0xbe0c1ecfbe1056d5U, 0xbd01018c3cd43e00U,
  0xbe038cae3e17847bU, 0xbdcea8d33dd5f1f8U, 0xbe3870543c7b4b43U, 0xbd05269cbde904bdU,
  0xbe28dad1be15aef5U, 0xbd9e30843df3f55eU, 0xbe3482613e26101dU, 0x3c4d8f903d5362e0U,
  0x3d4daa98be190488U, 0xbe16e9c83dcd745dU, 0x3ccadd60be2c0313U, 0xbc4072103ce67f30U,
  0x3d40eadc3d498766U, 0xbbd3c3003ddf62ebU, 0xbe0a9444be22f922U, 0xbe2294603d383d00U,
  0x3e127638bdc39a89U, 0x3acc760dbe18f912U, 0x3e0fe4b5be01379eU, 0xbcdbb8803db4bbc2U,
  0x3dac682d3de1f822U, 0xbcf4d8b73dfeb926U, 0x3c36eaf03da844e2U, 0x3de2d179bcf5bb56U,
  0x3e1929953c99b8c1U, 0xbcd0d3173d928853U, 0xbe1024b9bdf2916eU, 0x3cdc853abe1caf9dU,
  0xbe1430f63d339ce8U, 0xbe3c495abd0de46eU, 0xbd0969eabdf3e5feU, 0xbace94803ddb7dceU,
  0xbb82fc63bdbba4b6U, 0xbe031bcc3b68bf75U, 0xbc73424a3d98c0eeU, 0xbe2ddc12be1a1db2U,
  0x3dd1cacb3e0cf799U, 0xbc9b5128bdf277c1U, 0xbd9a241e3d62c6fbU, 0x3d311660be0cb263U,
  0x3e16e0d9be2d331dU, 0xbe0430843e0f47b0U, 0xbe12ba243aa56e00U, 0xbdb26cdf3dc48adeU,
  0x3d6755a7bd349d44U, 0x3dc73e7b3d511fa0U, 0xbd5c63943d584088U, 0xbd44c7313e12d583U,
  0x3d3148fcbde9a3b3U, 0xbdaafc133c893130U, 0xbbc011c03dbf191eU, 0xbdb0f95fbdb461daU,
  0xbe1f53cebc981044U, 0x3dd5b892bd811f08U, 0xbe044643be016c13U, 0xbdcd895c3e00bba9U,
  0xbd0844c43d89d6c6U, 0x3d239b76bc09ffcbU, 0xbdf947473dd9bab6U, 0xbe0b95003d34c088U,
  0x3deef03ebbc9eca0U, 0x3d068075bcca76c0U, 0xbe09ce0bbdf42672U, 0x3df930f6be27e0d5U,
  0xbcc924903e094d3aU, 0xbdf882e23d2e826cU, 0x3dd54563bdf0037dU, 0x3c106790be0254d5U,
  0xbe1c1b933db7eb5aU, 0xbdf588dc3d8b4612U, 0xbdf61a443d4e29c8U, 0x3e0de1753de0f9deU,
  0xbe0f7063be19c0e9U, 0x3cedca553d94d736U, 0xbe2cad443a909200U, 0x3d8fe00a3e2c4221U,
  0x3d633524bd5ccb5eU, 0xbe249b473c221277U, 0xbe2b0b633e0c0bd3U, 0xbe25be64bde3f67eU,
  0xbdb8771c3c9602e2U, 0x3d6313563ddb7ab7U, 0x3d529a483e13c854U, 0x3c558520bcde37e0U,
  0x3d504d6e3bdfd080U, 0xbbfcb1823e31433bU, 0xbdfa84e23e32d6bbU, 0xbdd373a4be3c2e0aU,
  0x3db2ab82bc7be8a7U, 0xbc43ad583dd79235U, 0x3e1f85debb10a028U, 0xbe279e8f3cac5768U,
  0xbdc27b603e23b0f9U, 0x3d7059cebe454f79U, 0xbc51b4283d75ebd8U, 0x3e319cbbbdec3a1dU,
  0x3e0a885c3ac2cbf9U, 0x3e2c39efbd99d0f3U, 0xbda871a53d8d0eeeU, 0x3db64e213c851decU,
  0xbdd7ce81be10b811U, 0x3d5ed3ac3d25478cU, 0x3dfa7e1a3d7e499bU, 0xbe21bbe6bb49e7c1U,
  0x3be0a8203ddda0c6U, 0x3ad9ce00bc74e8e9U, 0xbddaba7bbdea7a18U, 0x3c712a56bb6655c0U,
  0x3d90378fbe1dcdfbU, 0x3ddcc454be183a88U, 0xbc7760b33d0472c8U, 0x3c2319cf3c41ece0U,
  0xbda6a9693dbc2a6aU, 0x3dae8db6bcbcf708U, 0x3c1bad403deca9d8U, 0x3d6b11c03e040b1bU,
  0xbdc2a8d83d2c9b90U, 0xbdf672ea3e3352a5U, 0xbcd46793bdd8f72cU, 0xbe43f00e3d48ad64U,
  0x3d5926c0bd63f448U, 0x3dfdfe6fbd72a554U, 0xbe0878cfbdb88f86U, 0xbddb3fcebda9e3f9U,
  0xbdf0e6623d433c4cU, 0xbe3196f53e3075fbU, 0x3d9f6c3ebb3bbe81U, 0x3d104d10bdbc92e3U,
  0xbdf245f2bdf42f81U, 0xbd4b98d8be46bf70U, 0xbc770da63cff35c1U, 0xbc9123a03ced1844U,
  0xbd376a74bdd20230U, 0xbe19f59dbded1d8aU, 0xbe1c07b33cb07800U, 0x3e089a0d3d5a5b18U,
  0x3de85c1abd5bdcfeU, 0xbd19dba0be0d0dbcU, 0x3e26db4dbe024897U, 0x3de6ab763b3b0700U,
  0x3dc4f1423e27ec9cU, 0x3d53a208bd7b101cU, 0x3d8960c0bd96e8abU, 0xbe29d98c3c422d40U,
  0xbdaa161ebe3069d3U, 0x3bb49b7fbe33a1a8U, 0xbc9d7840be3c74e2U, 0xbd9c75c13d2e17ecU,
  0xbdfb5debbdfdede0U, 0xbe1d3443bdde6b8dU, 0xbe06cdafbccdb990U, 0xbe041233bbbf9e60U,
  0xbd512444bcd52edfU, 0x3de55b923dc51d70U, 0xbdd09dacbd97fb30U, 0xbe4b9f1f3db6f10bU,
  0xbde9f00e3cd82440U, 0x3b8bef2abd12444cU, 0xbe29a2b83e09ddcfU, 0x3b0230003c1b3c70U,
  0x3c8e25dd3de15b9cU, 0x3df797163e17236bU, 0x3d82e8b3bdba6e37U, 0x3e1471963cc64920U,
  0xbe02ac8f3d3e3d8fU, 0x3d1fb978be12bf2bU, 0xbbf8d300bcd9f850U, 0x3c9efff8be017078U,
  0x3e2b8817bd6ebab7U, 0x3dbec5163dee9291U, 0xbdfabb003d82a780U, 0x3e106c1ebd8a82f9U,
  0xbd24e4babc208b80U, 0x3d760354bd906ac5U, 0xbe06b86e3ca6e4d0U, 0xbdc56cd5bdfe0dc8U,
  0x3e2b71fdbd8083d8U, 0xbde34d30bdd5e024U, 0x3dc9178abe3b07cfU, 0x3e2ed94bbdbfcd1cU,
  0xbd9341c13d3eedeaU, 0xbe32b2983d1445e4U, 0x3dc6a80abdc7a953U, 0xbdd749c23cc0efb0U,
  0x3cd19af83cb20bf0U, 0xbddce618bdb3e2c0U, 0x3dd0fe55be025496U, 0x3e0c0bde3d8226c2U,
  0xbe2faed4bcfe9700U, 0xbca2d254bcbeaa58U, 0xbd037f94bd1c9fe1U, 0xbdc2754abdf4294cU,
  0x3b3eae803deaf9a4U, 0xbdad1d69bdbb3fc1U, 0xbe1c9f38bd6c0267U, 0xbd9ee3c4be64ad79U,
  0xbd1ac128be212d07U, 0xbe21ece13e07402bU, 0xbda52e823bb3bf60U, 0x3da064cabd5249fcU,
  0x3dd250be3db79326U, 0xbd573cbb3e31d8b9U, 0x3d6bffdcbdb22058U, 0xbddb4b493dbdc83aU,
  0xbe0d6c68be420176U, 0x3d59f513bdb24adbU, 0x3ca655c83e33694dU, 0xbe096d593ddcc9a6U,
  0xbe1fe8cb3d59afd3U, 0x3d0d9b47be18cc7bU, 0xbd299a2cbdbbb365U, 0xbe064492bdee49e2U,
  0x3da9e7efbd94d3d2U, 0xbe1c9b5c3e289019U, 0xbd642a343d314f90U, 0x3de684a3bdd85504U,
  0x3e31093fbd667466U, 0x3e180e46be04f462U, 0x3c0f8b09be36b1e0U, 0x3dc487a2bdf5a1f9U,
  0xbe2aa580be2d529bU, 0x3e09d6883e091e73U, 0xbd9a5801bd14e168U, 0x3d4cc0c4be1c552fU,
  0xbd46c6433dcf62d9U, 0xbe042bfdbe1db2dcU, 0x3e1ba0da3e097c7bU, 0x3d7e7fa2bdbb26f2U,
  0x3de05af03d61caa6U, 0xbe0b5266bcb66530U, 0x3dec48c2bb1f1265U, 0x3e32ecb9be3fe502U,
  0x3d98cc5e3d2e9292U, 0x3d63d2c8bd042473U, 0x3d706edc39ac7e00U, 0x3d90390d3cd172f0U,
  0xbe1ba101bdaac524U, 0x3bd6f1243c6c8500U, 0xbcd646023df0f91aU, 0x3da8a45fbc491d20U,
  0xbdf6253fbda6826dU, 0x3d3e466c3e2bda91U, 0x3d95bec23e034ea7U, 0xbdec7dddbdfa13fdU,
  0xbd95f0193c5903cdU, 0xbd24de483daaccaeU, 0x3e0fab3bbd388ed8U, 0x3cc79f4fbddce929U,
  0x3df4b4d2bcef35d8U, 0x3ddf7110bd488025U, 0xbdb60ff03dcbdaabU, 0x3d6786683dc84112U,
  0x3de4854ebbd9f020U, 0xbd934697be03489eU, 0xbdc5653b3d60deebU, 0x3d9e861abcc34818U,
  0x3e0ef30b3d21a01dU, 0x3d7f63503d053347U, 0x3dedb61bbd63d6a4U, 0x3e09ee65bdc9a878U,
  0xbb2aca80be1b8e00U, 0xbb89270cbda8f640U, 0xbe2088ea3d8f1aeaU, 0x3dea6b02be343701U,
  0xbe0ef60e3e1f2989U, 0xbd7497273dd088ebU, 0x3e037f5b3dbb2e5aU, 0xbe082cfc3e26ffe5U,
  0x3da7bc8abe167c99U, 0x3e239f70be0ed373U, 0x3db65a72bda9b668U, 0x3e21114d3bf892a0U,
  0xbd1ae62cbd0e2960U, 0x3d15cf403b5b1d92U, 0xbe1076c43da93b93U, 0x3e0b1a8fbdc631b2U,
  0xbe30b7b1bd243288U, 0x3d914c533d3f1864U, 0xbe1255613d3405d0U, 0x3d6485edbd82b97aU,
  0x3d99e086bd999e57U, 0xbe06ba9dbe2b9f30U, 0xbe0e7815be16f22bU, 0xbdbe4d51be0d4127U,
  0x3d833eea3d55826cU, 0x3c82266cbd2218acU, 0x3e08d4b33d1e50ecU, 0xbe2d675b3e1bfe3bU,
  0x3e24d20abe26becdU, 0xbe1bc5e8bddccb3dU, 0x3e0c224fbe28ed01U, 0xbdc8dd7b3d295f4fU,
  0xbdf7d7143e0f0b81U, 0x3d08847c3dc8578eU, 0x3c771830bd95e1e0U, 0xbd3548c03b458ae1U,
  0x3d5b95a0be13e4cbU, 0x3de6bc3a3e364297U, 0xbdb77e2a3df50b22U, 0x3d7d2863be244c50U,
  0xbe0207e33dce123aU, 0x3d20e657bc8842e8U, 0x3e3665423d36f404U, 0x3dac8c643d2aba5cU,
  0xbe311ef8bd7bcab7U, 0x3b7e98f43e0ec563U, 0xbd35fa00be12671bU, 0xbc844aa03d397741U,
  0x3cb7382bbe2ec00dU, 0xbe00e12ebd760d56U, 0x3ce737583e104899U, 0x3cd193e3bd571bc0U,
  0xbdd7ba8b3df13d32U, 0xbd9cb324bdde4301U, 0x3d3361acbe12c183U, 0x3dea036ebc33c030U,
  0xbdb4efd3be20624cU, 0x3df8c4223bb8a460U, 0xbe07b1ec3de827b6U, 0xbdf5cbb0bd880a8eU,
  0x3e02b1f1bdcb450cU, 0x3e2c7ab33da77082U, 0xbd66864abe0540ebU, 0x3e195ca7bdacb9f3U,
  0xbe03807bbddeaf15U, 0x3dc6191a3e06eb75U, 0xbd5d0e06bdbdcf84U, 0xbd9db0ed3c0c2150U,
  0xbd0882303db232e2U, 0x3e204247be2629daU, 0x3d064b38be18bb94U, 0x3d95c2b6bd7960d4U,
  0x3e2c7b1d3cac3b30U, 0xbbdff000bdfdf5a6U, 0xbd4fc898bcb92818U, 0xbe184e553da4d95eU,
  0xbe292f73be2542e2U, 0xbe3423a3bdda161aU, 0xbd7e95aebe1633a0U, 0x3e0908213defb676U,
  0x3cf234983daad74eU, 0xbdbf701dbd803b30U, 0x3e03b02bbe1e8b63U, 0x3de88f3a3e2994e9U,
  0x3e2a0a353d8bebc6U, 0xbd20b994bda44ee9U, 0x3db97dc6bdb02c1cU, 0xbc2781d03e30a903U,
  0xbdd56dfcbda7a1faU, 0xbdd0943dbcbf3b50U, 0x3d8129febdc5efcdU, 0xbdb20f98bd95b234U,
  0xbcc1ca40be0889aeU, 0x3de3b23e3cf8a550U, 0x3d9c90c23e32df43U, 0xbe21bce43d95885aU,
  0xbd8f298bbd8c01dfU, 0xbd73870abdeff4dcU, 0xbe27138d3d240188U, 0x3e183c7d3df18ca6U,
  0xbe2e6d27bd2dc804U, 0x3e12df0dbdc75a5fU, 0x3d9bf2b6be2824edU, 0xbd8ef9cabdfcc8bcU,
  0xbc15e160bde98964U, 0x3d345510be2fa52fU, 0xbcd444483bd991c0U, 0xbe20569c3da88d76U,
  0x3d23e6e03d9e48eeU, 0x3e2119733e2ed3a7U, 0x3e1a7d55bc936160U, 0xbb9c1fc0bd898a1eU,
  0xbdb6a225bd24d1c4U, 0xbe32fdc23e098c61U, 0xbe277ea8bc3569b0U, 0xbdd852ec3cbd73a8U,
  0x3df2255abdcfd9a7U, 0x3d08080b3d0e0e93U, 0x3d59dd81bd1d3e3cU, 0xbe1eb9ac3e12758dU,
  0x3ba02e20bd197998U, 0xbd7c840f3dc92a9aU, 0x3e14b0693e08aaafU, 0x3d20b4acbd6981caU,
  0x3e0b773fbc25e717U, 0x3dc6cb9a3d6794ccU, 0xbd5fc32cbdcba551U, 0xbe1852dc3c42fe08U,
  0x3df90b8e3b17fe00U, 0x3d913a36be1426beU, 0xbd92f82e3e28c645U, 0x3da0d0c63d043cf4U,
  0xbda28d033ce137e8U, 0x3cfb6975bdb2ed80U, 0xbd504c6c3e2e4307U, 0x3da622f2bdc71480U,
  0xbdb6c0483e33bb30U, 0xbe1ac2f33db9f9dcU, 0xbdb64c573dded3deU, 0x3d22769ebe09b7f8U,
  0x3cae71513db31a9dU, 0x3e2aef54bd933d59U, 0xbe115c803d58c6f4U, 0x3c295ad0be32dcc1U,
  0xbdbae9733e222267U, 0xbd8db3b5be104e84U, 0x3d71b770bdefa8f6U, 0x3c053af73e18b7d7U,
  0xbd222afc3c96ede4U, 0x3dcab450bd18f71dU, 0xb94dc550bcb932f4U, 0xbd2853153ded5f17U,
  0xbd8bb0b3bd73ce80U, 0xbe18e0963d7fa388U, 0x3c38c1153d0b8248U, 0x3e1361873d719560U,
  0x3d8d5f97be19fa67U, 0xbd9034c9bd994dd2U, 0xbe55b64bbd204d6cU, 0xbddcceabbcb55e43U,
  0x3de91598bb9c8f79U, 0xbd224ba83cb82410U, 0xbdad9e69bc83c5a5U, 0x3daa7c9abde470cdU,
  0xbc9c68a03e33a276U, 0x3e119f8bbe1af410U, 0x3d751060be208fddU, 0x3d8f3f2c3d1ae46cU,
  0x3d0b396e3d739aa0U, 0x3dfcd0e63dead106U, 0xbda29ace3c9f65a0U, 0x3cbe3d10bd01c51cU,
  0x3e1da745bb85ff3dU, 0x3db295573cd9aeb8U, 0x3dc53b4abdd2c18dU, 0x3dd1acf23e16b051U,
  0x3dfbc66abd1fec04U, 0x3c8171283d926076U, 0x3e2445833d58e754U, 0x3e17b639be2084c8U,
  0x3d8b34cabdd338e6U, 0x3e15e12aba50d56cU, 0xbdc1c1e13de5fd9bU, 0xbd320a31be1918e5U,
  0xbdc5671c3e2bb82fU, 0x3deac2aebb376180U, 0xbc56c2a03d930630U, 0x3d9d7932bd7bdf20U,
  0xbe0be148bc906fc3U, 0xbceee030bdde8a2cU, 0xbdeea4f8be54cbafU, 0xbd967eefbdbbcc1fU,
  0xbd3c936c3c7fb9b0U, 0xbe362b06bd89640bU, 0x3e28c4a53d3ae548U, 0xbb9732a03e088c25U,
  0xbddb9f193d8d7196U, 0x3c770f60be332170U, 0xbe22ec62bd435fecU, 0x3daab8a2be11768dU,
  0x3e20a15fbdf8c278U, 0xbc8b405a3dcf8eefU, 0xbd8ef4a43e10543bU, 0x3d86420ebd9dfd3aU,
  0xbe09b5eebd2b64b4U, 0x3e1674e43dee0138U, 0x3e0a9d373c9c8267U, 0x3e114f713e07a809U,
  0xbe3a11febe2f5e3eU, 0xbdedc634be14f894U, 0xbd3298dcbcbbabf0U, 0xbd7e9739bd98ee25U,
  0xbe30a3d53daded85U, 0xbe3cabd63cd49a7aU, 0x3d228e65bd5ac9feU, 0xbe210399bcc3d4c1U,
  0x3e0ad5c53e0871e5U, 0x3e150ab8bded159aU, 0xbdeaf6d13d9b9b92U, 0x3db0e8063dafe756U,
  0xbd1a5c5bbd0cec83U, 0x3d4de840be292c1cU, 0xbdcf6ec6bda47d01U, 0xbce48ba6bd02792aU,
  0xbd8176d43dc95badU, 0xbe02044d3cc6e1a0U, 0x3e0b3267bb42686eU, 0xbd8c1deabcf11d37U,
  0xbd965fc73e219908U, 0xbd5c9ea63cfa9cf4U, 0xbc15eb203d1f4d98U, 0x3c26fdf73c80d1f8U,
  0xbe3f5f6ebe1d0a56U, 0x3d2474ddbd9c9987U, 0x3dc7a0c13c89a9d8U, 0xbe4ac8863dc22a3aU,
  0xbe0ffa2c3dde8fe8U, 0xbe0484223d86a5c6U, 0x3d17275c3ddbe551U, 0xbd3be62c3db6ab34U,
  0x3d8fcf9e3ba241fdU, 0xbc9f66f83e0b3a11U, 0x3def7189bcf81568U, 0x3e14f961bcdf64d8U,
  0xbe2320a23e23653bU, 0xbdb11ac8be453089U, 0xbde4a188be1d1b5eU, 0xbde26b373d125914U,
  0x3d167bb43d190438U, 0x3dc807e4bda8bed5U, 0x3e083e57bdf4a6ffU, 0x3e1bfcad3d8bfe6cU,
  0xbd819113bcee21e7U, 0x3d88fe323e0f9016U, 0xbd867806bd556744U, 0x3dd87646bd9754bbU,
  0x3d9ff5523df28356U, 0x3dd57067bd891785U, 0xbe0b53a0be1ffc4fU, 0x3db0467ebd18a010U,
  0x3dff93423c9ad060U, 0x3e2c23313e0b8231U, 0x3e1b80873dabbeaeU, 0x3c91e2783d788c4cU,
  0x3d4943b03d45ca57U, 0x3e2aea953dbd785aU, 0x3c527c303d2eb514U, 0xbc963d24bd1611b0U,
  0xbd9cd185be1f2b87U, 0x3d5aae22be022a80U, 0x3bfa94003e0b248aU, 0xbdeec863bd820aa7U,
  0x3d7b20453e087f75U, 0xbe1e22903e254a2dU, 0xbe1c5507be2472dcU, 0x3e097b8ebe0bb2bbU,
  0x3dfd648abd52c96bU, 0x3dd73659be13e3c3U, 0x3db100bb3d85229eU, 0xbe2d1a88be06d297U,
  0xbd387a843d1865a4U, 0xbe2f91043ca2fe84U, 0xbe35bb3c3d86c692U, 0xbdb703043df9e5f6U,
  0xbe27137ebd960d6aU, 0x3c9199483dc97d7aU, 0xbe1759a9bd055970U, 0xbe163512bdb67628U,
  0x3e1375ccbd6035dcU, 0x3e0971ffbdbcced0U, 0xbe2e07c0bdd20ea2U, 0x3e31e35d3d6ae914U,
  0xbdf3f9103df10aedU, 0xbd4082b0bd8441b6U, 0x3cd0e2583daf0a32U, 0x3dfbf2973d8e3038U,
  0x3e08fe0a3e06be65U, 0x3d174c4abe2078c0U, 0x3dcf7ebc3c982300U, 0x3e04a097be14543bU,
  0xbd6edfec3df77dcaU, 0x3e1343733da52fe2U, 0x3e1e514bbda2d2c7U, 0x3d951168bd7c2e0eU,
  0x3dd1a39c3cfb5398U, 0xbcc7f7703e088031U, 0x3d395c873e089d47U, 0x3dfb67e43dce0506U,
  0xbd5f7be0bd88eea4U, 0x3be26f803dcbd322U, 0xbe121089be1d4ccdU, 0xbdc22744bde7cea7U,
  0xbd60b5e0be213e27U, 0x3d89fcc83e178651U, 0x3d4df378be2cfed4U, 0xbe0f9c2cbe30edd3U,
  0xbc0084a0bd2bf4e4U, 0xbe19ab14bce74980U, 0xbe2da16b3d67d70cU, 0xbde9141abe1d20c6U,
  0x3cc7f458be220c44U, 0x3d2b7ac8be0af09eU, 0x3dbaabc63cbea1f0U, 0xbdc281c6bdfdb12cU,
  0xbd5203cc3da54a6aU, 0x3a5967003e08a71dU, 0xbb3c5080be308ee5U, 0x3c2dacf03e2def09U,
  0xbd543c243e2fefffU, 0xbdd98da1bd464334U, 0x3df07eba3e14181dU, 0xbdaf0f25bd3d6780U,
  0xbda8580f3d56599cU, 0x3d06fdc43c777550U, 0xbdd096b13dd5678aU, 0x3e0e2dd53d46a0a0U,
  0x3df919cebdad3d24U, 0x3de0c2363e2dffafU, 0x3e2f6b1fbb0b90c0U, 0xbe1ef5da3d0870dcU,
  0x3db8cb02be3082aaU, 0xbd9387e6bdd1dff0U, 0xbc7d85703e0db3afU, 0xbdfcf9f73d1d4210U,
  0xbe09297c3ccf7d40U, 0xbe1ab9e4bdcd83feU, 0x3da9e0d63d33841cU, 0x3d548ad83e2e227dU,
  0xbdd31d68bd9b33eeU, 0xbe2ba6dabe2fc27cU, 0x3df8199e3a0dfc00U, 0xbd17bcbcbdecefbaU,
  0xbd89f51cbd9a259eU, 0x3e0119cbbdb6af1dU, 0xbdef5317bd30f738U, 0x3d924eeabdb877e2U,
  0xbc93e8983d12e980U, 0xbc618440be2af9beU, 0x3e2c377b3d8e6e9aU, 0x3db7a2363da0fd46U,
  0x3cfd57a83db6fea6U, 0x3d819eaa3c9902e0U, 0x3dcf9e923e181e73U, 0x3e2bb817be28c60cU,
  0x3d93709c3e0e851bU, 0x3c5e91a0bdb80d38U, 0x3db5fb423da86246U, 0x3e3480dfbd2e4818U,
  0x3ddc1026bc18b7c0U, 0xbd5e1f7ebd99e0c3U, 0xbe2bc224bda5ef92U, 0xbd2612a8bd8a68a2U,
  0xbe068367bd9a4fd8U, 0x3db432a7be2b9761U, 0x3da184d23aeff284U, 0xbde913c8bd27f888U,
  0x3df9d25e3cbc7eb8U, 0xbe139dabbd70333eU, 0x3db5aba2bd0b3130U, 0x3beefc00bce42d90U,
  0xbe0c3444be2412a4U, 0x3db0a7e23d5634eeU, 0x3b3f116f3e2dc00dU, 0x3d19016cbd51b098U,
  0x3ce32398bdb5d707U, 0xbc88abd23e282889U, 0xbda67bd8bd65652cU, 0xbde80f6c3e0501f3U,
  0xba9bcd003e226bf1U, 0xbcde09dfbe082d3dU, 0xbe27b7673d742870U, 0x3d37c5183df1ace2U,
  0x3df54c4abe17ca26U, 0x3e1932c93d9b6c5aU, 0xbe1e46a8bda94c14U, 0x3d8a16d6bdec60eaU,
  0xbcbd885a3dc8ff43U, 0xbdfbc70a3d32c1ceU, 0x3d1f35b8be22e6baU, 0x3d952244bdc3c585U,
  0xbda66cd2bd63453cU, 0xbc4c6f7a3e151e79U, 0x3d86ee0ebdcc48c1U, 0x3e00e026bdc27c30U,
  0xbdd2f96fbca19ed7U, 0xbe1269ddbe1bd421U, 0x3de5c6cbbe44c8a9U, 0xbe25b3283da00013U,
  0x3e0160eebe145f9cU, 0xbc850e583dc6a354U, 0x3dfa11aebc2a30f0U, 0x3e29bf893dd5916aU,
  0xbe19d709bcf2e143U, 0xbb7862803e04fb36U, 0x3e29f478be152c49U, 0xbe039e69be1dbd48U,
  0xbdc82d73be345722U, 0xbe08b2383d8824eaU, 0xbe205e4a3c4fe870U, 0xbdf592c93decf0beU,
  0x3daf4d06bdb656eaU, 0xbdd1ef0ebce5138bU, 0xbdb0675a3e116f73U, 0xbe19fa2bbded9b88U,
  0xbe1675a63cac9310U, 0x3d350014bddd891aU, 0x3dddee23be032b52U, 0xbcd2c10d3d3a4bb4U,
  0xbe1e5d7bbe04b2ccU, 0x3d2987f43dfbaecaU, 0xbe0da552bd7b4d53U, 0x3d9adaee3e1fa4dfU,
  0x3de9aad5bddf709fU, 0x3bcc27a03dea774aU, 0xb7f9c9d6bc9e5e80U, 0x3d2e44acbded216dU,
  0x3e01d2513e1e837fU, 0xbd99aaa2bda5d1daU, 0xbd2a1cb03e11cc57U, 0xbe03a274bdca68a1U,
  0x3cdd65283d70fdd4U, 0xbe3be9b6bd8b168aU, 0x3d839992bd85c0caU, 0x3db2662a3d9b3deaU,
  0x3dd185fabe08fde8U, 0x3cde2ee03c0b43f8U, 0xbc86dbb4bc3a8d28U, 0xbcb0fe403dbf84f7U,
  0x3da6214abd66766cU, 0xbc875b613dfd58e6U, 0x3ce00d10bcd13e88U, 0x3e1e2c0f3e05461fU,
  0x3e32de83bc5ad810U, 0x3e1247a2be61de73U, 0x3d8495643e04c209U, 0x3d1319dcbe27ec1dU,
  0xbdb290f9bd9021e5U, 0xbe1a0611be02ff17U, 0xbe20911f3dfb55eaU, 0x3e092c2c3daa7586U,
  0x3e02a1f8bd14eaedU, 0x3d8ca217bdafb15eU, 0xbe055cf63e2f25ddU, 0x3de38cc23db0a2beU,
  0x3d69485fbdb55b59U, 0xbdacc0bf3d0248dcU, 0x3e17b2513e1a0137U, 0x3dd2e48ebe41f2b6U,
  0x3e3174733d860099U, 0x3d0512febe2b9f4eU, 0xbe175d533d59bfc2U, 0xbde22baabe4481beU,
  0xbe270bbabd94b433U, 0xbb64278e3da84e0cU, 0x3c4865613d33c020U, 0xbdb2bbeebe0c01baU,
  0x3dfc8e013e185facU, 0x3e0faf9d3d2e8c1bU, 0x3db7c6aebd5c4f04U, 0x3dce540ebd90e21fU,
  0xbe224b17bda6c680U, 0xbdd4eddebcc47b58U, 0x3df86352be1dc5eeU, 0x3d4069d0be0a4600U,
  0x3b893360bda3926fU, 0x3a3420003dd0fdc8U, 0xbe2e6d1ebdb15a60U, 0x3d15ed0fbb30af80U,
  0x3e0b67083e21b86bU, 0xbd508ec1bda33400U, 0xbe40f979be2e68eeU, 0xbe11ea6c3ddab006U,
  0xbdb9f219bc16cb43U, 0xbd95b007bc840c20U, 0x3db0f33e3e00aea9U, 0xbe203511be10e0aeU,
  0x3e26296abd2ad113U, 0x3d0a83803dab9e46U, 0x3d66c42cbdd6532dU, 0xbd04693c3ca5d138U,
  0xbb4a05003e0e5947U, 0xbe8fbfab3ca28b13U, 0x3dbb92233dde28d5U, 0x3c89606abd491158U,
  0x3bdd96403e0ad7efU, 0xbade1c4a3e0d4fdbU, 0xbc36deb0bd06cc1dU, 0xbb2b5940bd52bef8U,
  0xbe00205dbd7a6b64U, 0x3e2d3d5d3e65d9fcU, 0x3deb6e69bd7427afU, 0x3df5878ebf3840a8U,
  0xbe23d27e3d4d93ccU, 0xbef111a93dc028eeU, 0xbdbadf93bd9d6697U, 0x3d9284803c6917b0U,
  0xbc1578003d21b3d8U, 0xbefb92c03eebf70bU, 0x3c46ad503dd7950aU, 0x3d742cd03d4ca7d8U,
  0xbdc37d87be96c354U, 0x3c4e1a60bd72acc5U, 0xbde3ab85bdd5fe42U, 0xbd443670be310b2bU,
  0x3d307ffdbe4a072dU, 0x3e1b39e8bf4161a9U, 0xbe0501e6be8a3545U, 0x3dda80363e177abdU,
  0x3b9e3e1fbe31730fU, 0x3e05edaa3e1c24ffU, 0x3df2237e3dd610faU, 0x3b5318c93dac0a43U,
  0x3e2bdbb93e13d5d7U, 0x3ad263ce3db4c059U, 0x3dd0bfefbcf79689U, 0xbbc0ca593e9cd736U,
  0xbde71a94bcf4ca78U, 0xbec375143dd78d22U, 0xbce2bd25be2dbe71U, 0x3cb3de58bca70a30U,
  0x3d68721bbb9628b4U, 0x3dde930ebd6d3a50U, 0xbddb81173e08346bU, 0xbdb8d588bd1264c7U,
  0xbe9197093bc08e8eU, 0x3da3dcfabdd120bcU, 0x3dbe039ebd57d958U, 0xbdf5378c3dce4228U,
  0x3cf8af60bf0c27efU, 0xbd9f13eabd8409dcU, 0xbde5d5a03cbd57a0U, 0x3e100843be1cffa1U,
  0xbe8fe1093c19ad80U, 0xbb4688133d5a7870U, 0x3d9e2c8b3d623e74U, 0x3ccc58d53d73b9f4U,
  0xbe1f2cf03da7a40cU, 0x3d470a54bc6bf990U, 0x3de274663dbcfad1U, 0x3ba04f603d5be876U,
  0xbce82cfaba2d68c6U, 0x3e1c0b073e0edc09U, 0xbe0cc6a5be164c99U, 0x3e6f1e0abcc4c250U,
  0x3cbe50b8ba586000U, 0x3d6ec3e4bdd6a67bU, 0x3df210463d8abe28U, 0xbdab13413e1ab71bU,
  0xbe081261bd4720b4U, 0x3d8a689e3cfb80e8U, 0x3e2f4c57be1a8d56U, 0x3d9a8186bd2861e4U,
  0x3e280165bda3d363U, 0x3d3956bc3d1e5036U, 0xbcc466dabd472878U, 0x3e2adf83bd106bd4U,
  0xbe2b422dbc3d0460U, 0x3e1e3efebda9e9ceU, 0x3c87d0e03d7e4808U, 0x3de210eabe08f1b4U,
  0xbd3e73a0bd0ff368U, 0xbd3cf119be3ebecdU, 0xbe115c5e3d8e3a6eU, 0xbd1479b0bddd0b20U,
  0xbe2be5c0be1db230U, 0x3b90c860bd9f2ff5U, 0xbe2592aa3d5b4720U, 0x3db41790be0b1d25U,
  0xbd5bb785bd0942aaU, 0x3e1e2b123e1046beU, 0x3d27110c3d7e8c2bU, 0xbe2403f5bdc4f8cdU,
  0x3d91c2193dae2682U, 0x3df78c28bdf66c5aU, 0x3de0730e3df9a7d2U, 0xbc8092ae3d545b63U,
  0xbe20a648be0f67a6U, 0xbd9273ae3de1823fU, 0x3c91a1c1bd24613cU, 0xbe4baeedbe3af99cU,
  0x3e0549b53c6eb540U, 0x3de188c7bb8c52d5U, 0x3d9303413ddb1aa2U, 0x3d04802cbe0f565eU,
  0xbe17d18abd547ea4U, 0xbd8663e73caf2f7fU, 0xbd3877673d85dd50U, 0x3cc04a54bdd576fdU,
  0xbd20c6d3bdc57692U, 0x3d1df9343dd273e6U, 0xbcebc4803dd137f6U, 0x3d4111503e13f25bU,
  0x3dd0a4363df32805U, 0x3ddd70f2be011a78U, 0x3decd8363e208481U, 0x3dc49e903e078237U,
  0x3debc8c13e153a5fU, 0xbd8803d5be257275U, 0x3d8351273c68d2f0U, 0xbd8ba5b4be15aa48U,
  0x3d53791c3d8ea709U, 0xbe237cba3d062a4cU, 0xbc9cef98bdfa89bdU, 0x3e30b86dbdb6a286U,
  0xbde70d24be104d54U, 0x3df6a556bdb2a0cbU, 0x3d77731abda4277dU, 0xbdc16d8bbdc652b5U,
  0x3cd83e10bd280374U, 0xbbd45b24bdc161e6U, 0xbe0d770abd92fb56U, 0xbdfb13703d4a3ca4U,
  0xbe0df6b13e2a971bU, 0x3cf7d20f3e34e623U, 0xbe277407bd632557U, 0xbe0b81d2be10d8c4U,
  0xbd69d1843d1c034bU, 0xbe03f3fb3d3f79ddU, 0x3cdf8af33de30a4cU, 0xbd7b3a3c3af4e58cU,
  0xbe31945c3dffee86U, 0x3df626c7bb408600U, 0x3e22ef413df66ddaU, 0xbc1c3480be0aeb21U,
  0xbe14a93abe1b7ddcU, 0x3cea29d43d952d5dU, 0xbe28da7f3cecae50U, 0x3c86c3903d331accU,
  0x3d844582be2c3f47U, 0xbd71734abe1ae1e7U, 0xbdff2d8d3e1067a9U, 0x3d9d98d6bd2ebd90U,
  0xbe35985a3dd854a9U, 0x3c0d4c183dcf2f6cU, 0x3d8f90023d455929U, 0x3d8852febdf48d8eU,
  0xbd490f6fbdf746b8U, 0xbc921e3ebda817cdU, 0x3da18ea6bde80f71U, 0x3d9ff96abd7aaa1cU,
  0x3e158ddbbe2a186bU, 0xbdb8f166bca8a7bcU, 0x3e10bfb8be18f868U, 0x3de8b2afbe381b2eU,
  0x3cbc71043deb05baU, 0xbcbe3519bda83e4dU, 0x3dbd15793d1ffec4U, 0xbddcb00abda7cef2U,
  0xbda7405b3e1197e3U, 0x3da5347a3dad123eU, 0x3c3c38f43da0faceU, 0xbce51535bd52f0b2U,
  0xbe1b52453e2371ccU, 0x3dc27786bc8c45b8U, 0x3e17db0d3e2eecb1U, 0x3c5520e0be132156U,
  0xbda9fdc2be10f2edU, 0xbe07cc6e3da5ad31U, 0x3e2ca53fbda7e7a1U, 0xbd4bc3e6bd2a9028U,
  0x3e243059bd802ae7U, 0x3e140956be1541b5U, 0x3debf0c23d7f1b8cU, 0x3d1b801fbbb7ffa0U,
  0x3dd58a5a3e1dc791U, 0xbda89131bd2634e0U, 0xbcdb2f50bd8551a1U, 0x3dc86d3e3da7e2beU,
  0x3c033972bd1e5c19U, 0xbdd932533db9ca4eU, 0xbe30f820be135864U, 0xbbb558013e0d0c6dU,
  0x3ceffe38bdcd31f8U, 0x3c55b1de3dc4c889U, 0xbdfe7176be10d389U, 0xbe0d2d7ebd7266c4U,
  0xbe0c3d3f3b9cf2e0U, 0xbcfd0ecd3d5ffd3cU, 0xbe08dee6be2b9e7cU, 0xbe2243acbda1c06aU,
  0xbdd4a4873e1927d7U, 0x3c5152e0bde5b11bU, 0x3da65e1c3d31ff50U, 0x3de9ccd6be31a2b9U,
  0xbbb31e2038d09800U, 0x3c0972fe3d98e26eU, 0x3da61f323d7710f0U, 0x3d1c7024bd3c67b4U,
  0xbb54dd40bca878c0U, 0xbd8c896fbe27aec0U, 0xbd25a51c3e3310fbU, 0xbe18d9853dc0f04aU,
  0xbe2f8b8d3df8e183U, 0xbdf9ed52bd15b930U, 0xbe0732ae3e1fedd3U, 0x3e16592abdec4628U,
  0xbde4816e3da12638U, 0x3dfa4b1dbdc739d1U, 0x3dc8d77abe3a7ddcU, 0xbc9a2f28be22235bU,
  0x3e195e63be0b3feaU, 0xbe3dfaecbe20471eU, 0x3d19b844bd35d938U, 0x3dfb23453dbb0d2eU,
  0xbc3d8fb03dd0e45dU, 0x3c3861ddbe3d2dc8U, 0x3db9bad33d7a18c7U, 0xbd345c62bb1d89a6U,
  0xbae024d13e18cc3bU, 0xbcedd149be212d43U, 0x3d53e832bda5ef10U, 0x3d00fdf83ddb10aaU,
  0x3dfce62dbd147d49U, 0x3d897782bc85b798U, 0x3e17d3623d90dac2U, 0xbdb83480be3b9618U,
  0xbe168095be386596U, 0xbdd9c359bd0fe2d4U, 0xbdd841ee3d945145U, 0x3d863d743cb462aaU,
  0xbd8cc25cbe236447U, 0x3e2ad5e9be03ae18U, 0xbe1b02723e22701fU, 0x3daf5d49bd007e2cU,
  0xbd929f1b3dcb881eU, 0xbd004390bcab2820U, 0xbdc41489bd635e34U, 0xbc871b8ebcc9c5c8U,
  0x3e07a2673e165eedU, 0x3d9f99b6bd0c9d58U, 0xbdc9c6863e0107a4U, 0xbe15bb05be2c714fU,
  0x3d254893bb35bb4cU, 0xbe1378303dfbc846U, 0xbc08a82fbe29f5b2U, 0x3c3a7edfbd9982f6U,
  0x3e1e50613ca2a9b0U, 0xbdeb9620bdef66f8U, 0x3dd31931bcd2cbd0U, 0xbca7e08dbdc6ad8dU,
  0x3ce553b8be14d94aU, 0xbdff1f5dbc778920U, 0xbd9e56cfbe38d62fU, 0xbdce5387be2a26d1U,
  0xbc8f9108bdaa1339U, 0xbbd037e0be025944U, 0xbd9e9248bd98c759U, 0x3dd8118a3d5995c8U,
  0xbdc1eaac3e270215U, 0x3e23c5c1be25afbcU, 0xbdbe794fbe1fb6acU, 0xbe02e816be084a57U,
  0x3d3194403d4a6768U, 0x3db25d66bd080c9eU, 0x3dc47bcebd0c2cf8U, 0xbd57ca68be20a637U,
  0x3df13d46bdffcc9aU, 0x3c34c8e53b749343U, 0x3d6a0aa8bcabaf30U, 0xbd4782533d4ded10U,
  0x3deac1733d7879b8U, 0x3dabe9553d73255eU, 0xbe2280ea3da7274dU, 0xbdca3c153d8bdac8U,
  0x3dde0614bcb186e8U, 0x3d1103d73c1c2350U, 0x3e2f76a33e34f9f1U, 0x3d1dd3d7be2e7e8eU,
  0xbe105364be2e4e84U, 0x3da0d06bbdeed997U, 0xbe06f0823e065538U, 0x3dbb2aebbd1184fbU,
  0x3d8de59ebda0d3b6U, 0xbe0b9c95be23f077U, 0xbd6755d4bd3a6f80U, 0xbdd42afebe233f12U,
  0x3dcd6cb4be09d851U, 0xbe068f64be14ab92U, 0xbe262264bdb36bc1U, 0xbe05c2a53de31825U,
  0xbd058433bdc31699U, 0xbde015e53da8f356U, 0x3dfd55c63def714eU, 0x3e083181bdcf47c2U,
  0xbdf8eab23d7b9746U, 0x3ba472403d5d78f6U, 0xbe003c95bcff64f0U, 0x3c9ce62bbd4cb824U,
  0x3c870e643c956ce0U, 0x3e0aac8a3e2f6f41U, 0xbd890717be2a6a11U, 0xbe3a2bc4be03306fU,
  0x3dfaf0e6bc8b341aU, 0xbcb941c0be09b21dU, 0xbe2b9c0cbddd138bU, 0x3e0bded73d59eb0fU,
  0xbe29a72a3cea2884U, 0xbe2ccf763da901baU, 0x3dc840b43cb15de0U, 0x3840d0543e080277U,
  0xbe1e4a33bca5b408U, 0xbcaa43febdb29867U, 0xbe36791cbe126700U, 0x3d8f80ea3e060801U,
  0xbdccb4d5bd2e8e94U, 0xbe2eb0923e1d36a7U, 0xbd88a9583cd94835U, 0x3e24da9f3e1d89b9U,
  0xbccd91483d8e15a0U, 0xbe335b0dbdff586cU, 0xbe30d63dbdb6ede5U, 0xbd1857b8be1325faU,
  0x3e250e61bdcd5f99U, 0xbe326475bd9dc5c3U, 0xbd968deabc736b60U, 0xbd3ac964bdf3bb52U,
  0xbd6b5f443e2e220bU, 0x3e1f093ebe33db8cU, 0xbe1aa93d3c77a7e0U, 0x3db0acdabdf514b9U,
  0x3d797ccc3cba984fU, 0x3d9ef2f2be31c8dcU, 0xbad2e6803d80316cU, 0xbdf925a33e1c6331U,
  0xbdd64494bc13130fU, 0x3de04ae53e163969U, 0xbdca4fb43e208d35U, 0x3d218fbc3e1ec1b1U,
  0x3d94bfb2bdc04aa7U, 0xbdd197e43d9b993eU, 0x3d5e97443c3a7540U, 0x3d1ba211bde6a50dU,
  0xbe17e009bdfec9b0U, 0x3df743a6bd996d90U, 0xbe14f7e93d76cd1cU, 0xbe2e1776be2df343U,
  0xbcb45cbe3d3369d0U, 0xbdb5cb47bcc2ff19U, 0x3e0ecacb3e2bf387U, 0xbd3bf1e4be2e78ccU,
  0xbe011accbd224a44U, 0xbd540d1c3d538ebaU, 0x3e1442513e1dcd05U, 0xbdc8129cbcb2e54fU,
  0xbd0a3c70bda837dbU, 0xbd48f5d03d2615b8U, 0x3d705d5c3de2de68U, 0xbd5eefa6bdda0b0dU,
  0xbd456d083da11559U, 0xbcbfddd83d85355eU, 0xbe09d7643cafc368U, 0xbccedd9dbd3b2c90U,
  0x3d99494dbdba2902U, 0x3df61f033e0c8713U, 0x3d14e64dbe202fceU, 0xbdbaf8ad3dd1bfa6U,
  0xbd81c8f53cc3b426U, 0x3d5a67c1bc8c2dd8U, 0x3d1ffc60bde15631U, 0x3bf2bda0bce2423eU,
  0x3d452a0b3dfd7019U, 0x3e253031bc7d7690U, 0xbdd143693dd52ae6U, 0xbe0c05c23d3ab464U,
  0x3d051bbcbd41fa14U, 0x3da95f71be02ba98U, 0xbdfde8cabdf98c66U, 0xbdf24d6d3d9cdf2eU,
  0x3bb785403c6d80c0U, 0xbdc3e7543d8c05b8U, 0x3dcf67a6bde812bbU, 0xbe1c7a16bc7f0e10U,
  0x3df8f902bd1f3fa2U, 0xbdadcf613d600d6aU, 0xbd2346ad3dbd884dU, 0xbdd32053bcabdd63U,
  0xbe0aefae3ac88100U, 0x3b97e5adbe17615aU, 0x3d34edd43d83d066U, 0x3e059c39bd9ee857U,
  0xbdd0c1083e19ebdfU, 0xbd8ee521be3b0a7eU, 0x3df9ff22be285da0U, 0xbdb914a43e1a9a4dU,
  0xbd4214b8be24f0dfU, 0xbe181af2bdbce2efU, 0x3db7e0423d37b678U, 0xbd4e44423d86dc1cU,
  0xbdcd3deabe005b5dU, 0x3e156d22be170860U, 0x3e19ac6dbdc75e59U, 0xbd24494cbc68c3e0U,
  0x3d97a1703e19fd85U, 0x3d50ec0b3dc5503eU, 0xbe18147b3d4ff920U, 0xbdb5316cbd1b3252U,
  0xbe218ec33c8bf0feU, 0x3d84ba813d851a39U, 0xbe16cb21bd0d957aU, 0x3d7a38b7bd6acbfeU,
  0x3d3c0a1bbd8195b1U, 0x3de9bc88bda0a2d1U, 0xbd12b8bbbe291067U, 0x3cfef6083dae5bdeU,
  0x3e1e4643be414a6bU, 0xbe15aafd3db4f150U, 0x3df473b5bde0f86fU, 0xbd527e81bd087594U,
  0x3ca28ce43e0dabbcU, 0x3bc389e03ccc77d8U, 0xbc151a803da127fdU, 0x3db3d9523dcbdff2U,
  0xbe07755b3e0a865fU, 0xbdf83618bc349888U, 0xbd9827c6bca1af08U, 0x3d30e52abe1f7650U,
  0xbd0877acbc61d020U, 0xbdf7f429be020f8fU, 0x3dc56abe3d56d850U, 0xbdefea29bd84b470U,
  0x3dbd119e3e08085dU, 0xbdae8535bd84e545U, 0x3dd0d16ebc864c3fU, 0xbdb216393cd75d81U,
  0x3d8be4893d9e2524U, 0x3e239e633e27abb9U, 0x3ce26e44be006069U, 0xbdf82428bd2f0090U,
  0x3ddc929abe2255f8U, 0xbdcabc403e06aa25U, 0xbc6491553e0bce10U, 0x3ca452363d8ff7b6U,
  0x3c5da840bde9614fU, 0x3d452571bd0f2294U, 0x3cd8d740be333333U, 0x3b1b3e403e1bbb8bU,
  0xbe22a2e1bcd8132dU, 0xbdc32ae23d4f5379U, 0x3e1bd1a0be42519bU, 0xbdf03b70bdf9cf6dU,
  0xbab03f00bd81c791U, 0xbd2d89a03d45cd04U, 0xbe0f0f5e3caf24d8U, 0x3ba6a4c03dcbe5eeU,
  0x3db16b5e3ce486e8U, 0xbda787e03d21d105U, 0x3e0ace6dbd9491c0U, 0xbd48f6c0be02d45bU,
  0x3e0d08b1be061d71U, 0x3e1de8843d7d39ffU, 0x3db1effa3d3acf7cU, 0x3dca783abdd2822dU,
  0x3e077b233dc23b8aU, 0xbd47a85c3c386dc8U, 0xbe185b5c3d8076dfU, 0xbe0b5ceb3dd6a8deU,
  0x3e174f6dbdeb1872U, 0xbdacf2b3bdf319f2U, 0xbddd2b903e0e0f1bU, 0xbb40f52e3e0080cfU,
  0x3df8008abd5b8359U, 0x3e15fb5abe45e0eeU, 0xbd14bcfcbdfe8e75U, 0x3da6b561be5a5685U,
  0x3d893e6f3d272c2cU, 0x3ce0bf263d8ce86eU, 0x3cfdc97dbe08287cU, 0xbcb84428bd9d930dU,
  0x3dd7cb59be3efb49U, 0x3e2dd3f1be11b1f1U, 0x3daf22473c853918U, 0xbd8c15cf3e1ff3fcU,
  0xbe0e1c853cba13faU, 0x3cf914803dbf240aU, 0xbe32ddedbdaf6091U, 0x3caeca58bd509793U,
  0x3dc6ba36bda17640U, 0xbd59c61cbcfcacb9U, 0xbe28b563bdf59356U, 0x3d10a9dcbe28d433U,
  0x3cfd6ca43df75baeU, 0xbe19a0dbbe0b9338U, 0xbdf7f6833cb4aa30U, 0xbd4efe1a3d8a65b8U,
  0xbe1336eabdd0795cU, 0xbd843b85bcabb6e0U, 0x3d8e22d43cb85648U, 0xbdaabdc3bc663f63U,
  0xbe3c02eebd0a630eU, 0x3d9950de3e306de7U, 0xbd5424b1be1a0ff1U, 0x3e11ba96bdb161e9U,
  0x3d0664acbd01f658U, 0xbc9fb8b13e00464bU, 0x3d9000ef3e111c22U, 0xbe13342d3c852248U,
  0xbd77ca103e1b1d7bU, 0xbde9478d3daa5a86U, 0xbd86cad5bd55be30U, 0xbdc71ed7bd2fa50cU,
  0xbe22604a3dadca53U, 0xbda26b7e3e0b9735U, 0xbe1a0ba5bd34af24U, 0x3d8aa3a8bce382feU,
  0xbc8647303b067040U, 0xbd1ea06a3e11d465U, 0xbddd83993d95fdc2U, 0xbd9daf5b3e1cef99U,
  0x3deeb2623dad10f2U, 0x3d7bd8fcbca90324U, 0xbda2a5fb3cbcd720U, 0x3c7f22603d7df4e8U,
  0xbe0a3507bd1c8e2dU, 0x3d5eb8c4bc4408efU, 0x3e0fc893bd2274ecU, 0xbc97d6713e139b99U,
  0xbd4343bcbe280c22U, 0x3d90a2b8bdc92a3bU, 0x3d9d4406be255557U, 0xbd264874bde30729U,
  0xbe0255413dd60812U, 0x3cc62b2a3d81a4fcU, 0xbce32b90be317079U, 0x3cc6b924bd9ad9d7U,
  0x3e00a1ebbd90406cU, 0x3e12ee6ebc41047aU, 0x3daff9dbbe2d4cddU, 0xbe10b75dbd9435efU,
  0x3dde10933dd6f7c6U, 0x3d983344bd9f4bb1U, 0xbda1bc453bf99740U, 0x3c8714403e0b6183U,
  0xbdaa91db3dc0c0f6U, 0x3cb32e78bddc5ff5U, 0xbbf2bb493d78aeb8U, 0x3e08b468be2c6958U,
  0x3d2b6b82be13d209U, 0x3d813f463da8a0daU, 0x3e2115633e02dabdU, 0x3d897192bd390db8U,
  0xbd670a9cbe219c09U, 0x3cd5f7c0bcac42ddU, 0x3a057a003e2fb5a3U, 0x3e27be97bd73efd4U,
  0xbdf1c9a13d189ddcU, 0xbdebc694bc09a9b0U, 0xbd0d6360be093efaU, 0x3e03e7fc3d8775f4U,
  0xbcdcd9e0bdc99e00U, 0x3dad877e3d3ab080U, 0x3cb881c0be33afe1U, 0x3e077d61bdb33545U,
  0x3c0d4757bccdac71U, 0xbe0fac91be0e0d7fU, 0x3d506f023dd61e52U, 0xbcf8377ebda3d8c7U,
  0x3e0451c93b84d460U, 0x3d0a88f1be026926U, 0xbd805919bdc0ba07U, 0x3d25d0e4bd80255bU,
  0x3c7b3de03e10a9fbU, 0x3da00fdf3bae58a0U, 0x3e1d18a5be3667ccU, 0xbdfbdeae3dd52186U,
  0xbe326b7c3dca8219U, 0xbd3e67643d8edfd8U, 0x3e170efbbd92f6a3U, 0xbd1610ccbe1cb929U,
  0x3bfaa9a03e3177d1U, 0xbb6d27373d95683eU, 0xbd35f7d8bdf965d2U, 0x3d9b6fe63dcafc2aU,
  0x3d0b79943dc3b986U, 0x3d7efcb1be37db02U, 0xbdc5702b3e2491cfU, 0x3dcf1ef63d52c5c4U,
  0x3e2a18933d7d789aU, 0xbdc4b545bd7ca51cU, 0x3d0be3f43de8b61eU, 0x3d8f4e3b3dbc5e7aU,
  0xbca626643daf25ecU, 0xbe11a459bdf06a59U, 0xbd2af544bdd90576U, 0xbc6e8b003d4e3004U,
  0x3dc4d18b3e0908abU, 0x3d8f9409bd391464U, 0x3d496bc43e1eaddfU, 0x3da927f33c8826e6U,
  0xbddecc12be189b63U, 0x3d79ec99bdf4082fU, 0x3d782c56bb3730faU, 0x3e0432f4bda6f074U,
  0xbe165881bd8a9d29U, 0x3d5f446abdefd94cU, 0x3d8cbf4e3cdeb290U, 0x3df4f516bdced630U,
  0xbe19a123bcc90127U, 0x3e1e7c973deefb45U, 0x3e23bd543e0998cfU, 0xbdd8f7a7bdbd4430U,
  0x3e008487bdfe6a3aU, 0x3d536844be0d924eU, 0x3e03743fbd0c5997U, 0xbc95a098bdddfceaU,
  0x3e150dc7be41aa6aU, 0x3d9c63163e0028f9U, 0x3d92c518be01931cU, 0xbe21aace3e175c2fU,
  0xbcf6cfccbe1f704dU, 0x3e05a973be2e5d38U, 0x3db8a732bddc2c6eU, 0xbdd999133cd38200U,
  0xbd96b7e1be1161c3U, 0x3e1a5997bd2a77a0U, 0x3e09b22dbd809db6U, 0x3e0698ef3cfa6195U,
  0x3cac701ebdb994e7U, 0xbdbe22fa3ddfee12U, 0xbe03aea63e03714dU, 0x3df5c70cbe29834fU,
  0xbe15cd133d3b6a14U, 0x3df196c7be317a29U, 0x3d82b2903cf7529cU, 0x3db1a568bdb9c14eU,
  0x3dee57363e1ad20dU, 0x3e07e86a3db071eeU, 0xbcc15e40bd929fedU, 0xbda1d66dbc25d6b0U,
  0x3dbd99c63dcf3e34U, 0x3e0036ed3e16c01aU, 0xbdb67406bc7a8cd4U, 0xbd84323e3df4d4cfU,
  0xbdc93b07bde60d28U, 0xbcbfa345be2711dcU, 0x3dbc8ca6bd164c6cU, 0xbaea6980be0fe8a6U,
  0xbd93fe403e19ce8fU, 0x3d9ec0f9be05fbcdU, 0xbd9d72093e0a8f6bU, 0xbdc7c6e93de4c5caU,
  0xbe10fd98bddf2146U, 0x3df72e6dbdb53bc2U, 0x3d79c6e83cd42fc0U, 0x3d4e7e0cbd33f1e4U,
  0xbd883e94be0e729fU, 0xbd4185c23e803f9dU, 0x3e19416b3dcbce3dU, 0xbd208ffcbc97cbc0U,
  0xbdb8724e3daee6feU, 0x3e22ae8b3e305ce7U, 0xbe2b7399bdeafe4dU, 0x3e2542833e1f5d01U,
  0x3ca288a0be95b7e8U, 0xbcceb246bd5d5e61U, 0xbd36debb3d8e9b5bU, 0x3cf38d98bde7a45eU,
  0x3d4f9806be15d148U, 0x3e5a7633bd916249U, 0xbe040a42bd59c002U, 0x3e2226613d2f3768U,
  0x3d46e34a3aac3e78U, 0x3d4c70b03bb17df6U, 0xbd37a873bdf3f4f4U, 0x3cf670d93e28eb5cU,
  0xbd5d97423d1f3ecdU, 0x3e2b0f613e08bacbU, 0x3da7b842bdd2f02cU, 0xbd1f7114bd8f4226U,
  0xbdbfbcb3bd22a5ebU, 0x3e184e493d9f8349U, 0x3e262a2d3e261d4bU, 0x3de202663d4ed4bcU,
  0x3d933f41bc8f9160U, 0x3db754b2be08c8fdU, 0xbda01bae3c2b5da0U, 0x3e1ec1a03df94a76U,
  0x3cc8e498bdad7487U, 0x3df677443e08c76bU, 0xbe0ded64bd47fd34U, 0xbe1a14efbd846139U,
  0x3d5e79a4bd0fc96cU, 0x3d2e25743bc4be20U, 0xbe1355013dd922f6U, 0x3b130e363d8ed346U,
  0x3e11e3b13c52cb00U, 0x3d8d169dbdab5377U, 0xbe0189a2bd8e8d5eU, 0x3e176fec3dddc03aU,
  0xbdf1e6063e0d4817U, 0xbcffdeee3db6c4e2U, 0xbd72e670bc9988f3U, 0x3dc270b23c9807f0U,
  0x3d3b6018be2b8e46U, 0x3dc641b23b3b4bbaU, 0x3d731fa63dc13622U, 0x3e1d08b9bdde0622U,
  0x3da7ec623b648180U, 0xbdc034683ddb781aU, 0x3d55bb7cbe101527U, 0x3e1bb5cf3dc14422U,
  0xbca08f38bced8fe0U, 0x3e195bb63dc18b1eU, 0xbde2ea59bd81a6eeU, 0x3ddd59163e0f1a11U,
  0xbb80a3c03cca2d9fU, 0xbe26e9023dc730e2U, 0x3d8396ae3d0296c4U, 0x3dd38f233de5034eU,
  0x3dc84bf83cd6ae1cU, 0x3c986784be386d58U, 0x3dc639b2be3a9701U, 0xbda260603d886d6aU,
  0xbe1b7e6d3d0ea540U, 0x3dce91edbe0c4bffU, 0x3d10697c3cc66848U, 0xbc8a05663dbd6a45U,
  0xbdb6df32be4ed1f0U, 0x3e06a995bd67ef2bU, 0xbddc2ecbbe2091a6U, 0xbd862620be2d1dbaU,
  0x3dff1b2cbd53f89cU, 0xbbfee5c93cd187a8U, 0xbe1c6660bcbe4b68U, 0xbdee05503df780d6U,
  0x3da151723e0cd3b5U, 0xbddb062a3e1ee52dU, 0xbb0143fbbe3166d7U, 0xbdfd17b53dd1f540U,
  0x3d379d1ebe12b365U, 0xbe156b263e15f4bfU, 0x3d866886bd92c5e4U, 0x3cba61f8be345b15U,
  0xbc957848babc5b77U, 0x3dbf65e6be10cf5eU, 0xbcffcf303d8473b2U, 0x3d993b883d9f0f8aU,
  0x3df8fc2b3d5b0958U, 0xbe2170263dafd46eU, 0xbd525e903d9fd432U, 0x3dc19bbdbd65f40eU,
  0xbc1c23e0bc6a74eaU, 0xbe0e1b4fbdcdafe0U, 0xbd475444bcc201b0U, 0x3e234df9bda44e0aU,
  0xbdad5f42be20b4c8U, 0x3e304d793d914110U, 0x3df8d2d4bd942eaaU, 0x3db3dd04be22f75eU,
  0xbe1fa3e3be06480aU, 0x3c8524f6be3c7041U, 0xbd966af43e14495cU, 0x3dc456103e3223afU,
  0xbd9ec6663cc70748U, 0x3d1f46df3daaceaeU, 0xbe2de2403d7e7d7cU, 0xbcd83e983e1ff6a5U,
  0x3c5382b03daa94acU, 0x3e11be9f3df99d36U, 0x3da60cbbbe2110ebU, 0x3de8de363ec0bf2fU,
  0xbe0cf439bd779616U, 0x3de6e2233db2240eU, 0x3e19548f3e028379U, 0xbc2d7190bd066bb4U,
  0xbe25fb7b3d0ac8acU, 0x3e1830c4beb6a6c9U, 0x3da78b663e0256c5U, 0x3df689c23c389300U,
  0x3e3049753dd871dbU, 0xbdb521f3be05b9b0U, 0x3df206f2bd1d9d74U, 0x3e16a0793e0732e9U,
  0x3e1bc35cbcb9dfe9U, 0xbde7b0383baa4c7fU, 0x3df3897e3dcf38d4U, 0x3e29f1f5bdea96b6U,
  0x3d615cd03e29dce9U, 0xbdf0e0973e07d901U, 0x3b8d9dc0bd83e2a6U, 0xbd5a8b343e14dde9U,
  0xbc86d3483bf960a7U, 0xbdab9602bd80fae1U, 0x3e396d9e3c9184e4U, 0xbd1a9349be0cf73bU,
  0xbdb91eea3e2ac1fbU, 0x3cfa444e3cb00120U, 0xbcf63270be305043U, 0xbda63b253e155969U,
  0x3d4ebb53be004691U, 0x3d54bfe03ddd2986U, 0xbe9389613de4a0caU, 0xbc143c83bca7b2dcU,
  0x3d406b6abcc9cedbU, 0x3d110a883e32611dU, 0x3da432e23d534fe3U, 0xbde06cbc3e1a6eb3U,
  0xbdd6b265bdc45309U, 0x3dfd0dbebda7b15dU, 0x3df589aa3e067921U, 0xbc88a4e5bdd238edU,
  0x3d803547be1e1df9U, 0xbc6d6ecdbd82a03aU, 0x3df334c93d345328U, 0x3e157b373d7c7204U,
  0xbd90866fbdf9ff50U, 0xbdefe4673e2af7dbU, 0xbe00832ebd3fa5e4U, 0x3c6d1ac03dc7827eU,
  0x3d4601413d7fe8ecU, 0x3bea7060be0e6c07U, 0x3c1f0a72bdb26e86U, 0xbd8278783c09cce0U,
  0xbd7f7c54be297fceU, 0xbd36e68fbd301024U, 0xbdcc27d0be3bea64U, 0xbe2bd53fbe1ef4b4U,
  0xbe172a98bc22f2b0U, 0xbd686f223dcd7d26U, 0x3da00b2e3dcdd74eU, 0x3e20c565bcda4fc8U,
  0x3d8fe6fc3da70dd4U, 0xbdb77df1bdf5f647U, 0xbe3175aabd804ea0U, 0xbe0b19ffbe606d6eU,
  0xbbe37200bdec3283U, 0x3d85e039be2eac1bU, 0xbe0d99163e0a1217U, 0xbd8179fc3d7b77a0U,
  0xbe2dd7ddbe12c4e4U, 0xbde80adb3ddd860dU, 0x3e264fa7be26ce9fU, 0x3ddc85eebdeafdcbU,
  0xbe288b9fbe21fa9cU, 0x3d5aa6ec3dcece69U, 0x3b3ff500bd146eb0U, 0x3dd2c233bda56e92U,
  0x3d87d0a53daf958cU, 0xbdb09ec8bdabc798U, 0xbd914f623e253ce0U, 0x3df2d3363b9638c0U,
  0x3d2f6558bd57a86cU, 0xbd84ea23be23affdU, 0x3e2cfa43bdbfdc14U, 0xbd5f54a33d677667U,
  0xbc590e103df947dfU, 0xbe0e998e3dedbc42U, 0x3d4974273dedc857U, 0xbd733abcbdc70ff3U,
  0xbd2d7df6bde713a5U, 0x3e1b433ebdba5fd6U, 0x3d88da3dbdbcfb95U, 0xbddfa8bc3e1d88fbU,
  0xbd6d79f1be34ae75U, 0xbd08d20cbdf12bdbU, 0x3db9eb543db06fcaU, 0x3e067e133e1dd973U,
  0xbe29cfb73d9c01a5U, 0x3d91aff8be2afd4aU, 0x3de0fbcabe0179f0U, 0xbdc68f3bbe1171bbU,
  0x3dcb9c923de9ee29U, 0xbe2dd662bdf4c19bU, 0xbd1a75ac3e0aa545U, 0x3e0a002d3e1fa55bU,
  0x3ce225623d56c844U, 0x3dcf92683dcf7ffaU, 0xbda5215a3dff3da2U, 0xbe08a16cbe14a594U,
  0xbdff283a3c547e7bU, 0x3e19c59ebe2fc181U, 0xbe095e6ebdb5fb88U, 0xbdc969cebe2037faU,
  0xbce74162bcd5c780U, 0x3d277e98bc058ec0U, 0x3e1eb4c5bc06a440U, 0xbdaa6489be0e4e02U,
  0xbccefea83c2b6310U, 0x3c9ee58b3cf56f28U, 0xbd92594cbde9832bU, 0xbcb7dcef3e205dabU,
  0x3d9d5882bd0009d8U, 0xbda009123d357c80U, 0x3e21c27bbe255d64U, 0xbc5cd070bd2634c8U,
  0x3da84672bda29626U, 0xbcd9abb83e08a5f9U, 0xbe1412d0be6e0159U, 0x3c3496503e2a77ddU,
  0xbcbe5cc0bd7d90e4U, 0x3cb9c712bda9dc43U, 0x3c938da8bdeb1910U, 0x3c17e1e0bc565b90U,
  0xbe0c82aabcb90398U, 0x3de77194bdab392fU, 0x3e190a63be12bb1dU, 0xbde8ce513e079a69U,
  0xbbd09d403dd265a9U, 0xbddc9be33d61f04bU, 0x3db89ababe0127eaU, 0x3dd8cdc03bc621e0U,
  0xbc88079f3dc27c70U, 0xbdcd40fcbda678dcU, 0x3e09d021bd735022U, 0x3e295419be166397U,
  0x3d301f12be32ef2fU, 0x3db1febebe2e70c7U, 0x3d33c900be054f59U, 0xbe05ff243d57479dU,
  0x3cec29a03dbad525U, 0x3d86ff22bcd3f1b4U, 0x3e46e034bdcdd133U, 0x3cac2ac6bdc20dbcU,
  0xbdf686f73dca831aU, 0x3e24f22dbd6013a6U, 0xbd3ca8bb3d9c5326U, 0xbcd529d03cc2a408U,
  0xbda86f0c3c87bc23U, 0x3e22774dbd5be1d5U, 0xbe2fc722bcd529d0U, 0xbcb37f603d89e53fU,
  0x3e2427523e2b942eU, 0x3e31faddbd9bb1e8U, 0x3cc60248be09f8d9U, 0xbd920b033df6063bU,
  0xbe1fbdee3d0c405dU, 0x3c1a3e703d248b4bU, 0x3d5e477c3e1d4265U, 0xbd7be17b3e1b5661U,
  0xbe01cdad3d683178U, 0x3d99c3673e1c7337U, 0x3d957abebe1e2ba4U, 0x3d398c7dbe26055fU,
  0xbe023b9c3e08a69bU, 0xbd54325b3ddd1e6aU, 0xbd839abebdedfeb7U, 0x3ddf745ebcdb8bf3U,
  0x3dad1eae3c77d77dU, 0x3d07b0883e14742bU, 0xbdf3c6e6be3197afU, 0x3d89c18b3d412ce0U,
  0x3d0c2c70be18351cU, 0xbdfce45e3e295fd4U, 0x3c540d5dbb38a1f2U, 0xbcfb196abd09100cU,
  0xbd695b083d91464eU, 0x3e13b65d3e325b77U, 0x3d8a077e3e0b5026U, 0x3e20b781bde37ea9U,
  0xbc761720bd2a94c7U, 0xbe05d8053d2e43f2U, 0xbc0f2f683da9128bU, 0xbd601ba4bf9afceaU,
  0xbdba70c73d435550U, 0x3e22de9bbcc94530U, 0xbe345df63e1c48e5U, 0xbe022bfa3ca31a90U,
  0xbc6207f0bdb8a7e1U, 0xbd3005b23f085af5U, 0x3db8b75a3d5a760cU, 0x3dc5ebbe3daeeaa6U,
  0xbc25e200be5c4a77U, 0x3d9a48fa3b0541b7U, 0x3d1c24ecbdad84c2U, 0xbe1ef16a3e03a3e5U,
  0xbdbb75df3d8eedfcU, 0x3b2fb170bc32cc08U, 0x3e1ff56fbdd3f592U, 0x3cf8cf90bcc12128U,
  0xbe6595593c2b3d70U, 0x3c8bc0453e0f3983U, 0x3d92b6cc3d78f76cU, 0xbc5902663d1a02bcU,
  0xbd9b15373d5a304eU, 0x3b53aa1e3de24ab3U, 0x3d51f8eb3dab478eU, 0xbd677ab43ebdaff8U,
  0xbdb70fdfbdd62920U, 0x3cd5d5dc3dae8d9cU, 0xbd0d5f20be2b4dd5U, 0x3e1750bf3ce24458U,
  0x3d140610bdec0f99U, 0x3e014e2f3dd13d79U, 0x3d1c6c95bd0ddcecU, 0x3d6dd7893d4c49ebU,
  0xbe36d57b3cad11b5U, 0xbd7474023e216f49U, 0xbd7f80e03d45df20U, 0x3da3ee42bb0c142aU,
  0xbd8d6740bd99beecU, 0xbe17f84cbb810bd8U, 0xbe320ae0bdbd0061U, 0xba802fef3d75ed14U,
  0xbdb09ebebe01eaaeU, 0xbd14b3f23e31792dU, 0x3b7f9ce03e139ea1U, 0xbdb0df45bc7de380U,
  0x3d56f3243cd9390bU, 0x3dd374a5be1ec19dU, 0x3d8fda52bd887d2cU, 0xbdc71b383e05e772U,
  0xbe1dbacebdf8d50dU, 0xbd94c68a3d752b04U, 0x3d24ebee3de08ba6U, 0x3dce2019be07482eU,
  0x3d4a9b903dfcc4feU, 0xbd8a7e11bdf6db75U, 0xbdf2397cbd42bffcU, 0xbe328e603e065aefU,
  0x3dcde6ce3dd37db6U, 0x3df7a2d2bd2b3904U, 0xbdb18c73bda6d764U, 0xbdfb10eabe2cd2c9U,
  0xbe063421be16510fU, 0xbcd631e83bbdba80U, 0xbe1bc88e3dd47522U, 0xbd86a40dbdb8e921U,
  0xbe2257793e34bb01U, 0xbd846872be18259bU, 0xbb9b52c03c95e0c0U, 0xbe1063c0bd3735d0U,
  0x3e31597b3db6654aU, 0xbd96fa8b3beab5c0U, 0xbcfd16283e19ffb5U, 0x3b8476c0be079494U,
  0x3daaf75ebd8ed297U, 0x3c9f5830bdf72ce8U, 0x3e2b2959be1ec06eU, 0x3ca3d1303d9db42eU,
  0xbd656712be2fded3U, 0xbdb388653d27e29cU, 0xbe1a34d23d357d78U, 0xbd9b42efbe1246feU,
  0x3dd032723dbebe42U, 0xbd9ef7cebe2eddf2U, 0xbdcbcb4f3c0f69e0U, 0x3d6dc4803e2e2f51U,
  0xbd13af5c3e0083e9U, 0xbe322db3be209c48U, 0xbd746c243d2c1170U, 0xbdaa39223e0087cdU,
  0xbe27b145bc30ec20U, 0x3d9c00323e2aab0bU, 0xbbfd6ee0bd9ca46cU, 0xbe2656f73e114ad7U,
  0xbb1f9f00bd83f43cU, 0x3d87e83ebe315e93U, 0x3dc093babe09a0c7U, 0x3e021d773df909f2U,
  0x3d69354cbd8b526cU, 0xbd35a510bdab85b2U, 0xbe06b41e3db829c6U, 0x3ddf529a3d00b6e8U,
  0x3dc86cca3cbecca0U, 0xbe22eb6cbdeb05d0U, 0x3d537888bd888729U, 0xbcb42e98be0cac4eU,
  0x3e251c03bd4f734cU, 0x3acb7980bd54c382U, 0x3bb85200be31be3eU, 0xbe1292e6bdfe20f6U,
  0x3cd0b4d0bdc877b6U, 0xbe20d9203e0ff2bdU, 0x3e2ae92fbda7b074U, 0x3d13e9083d6de618U,
  0xbc303420bdd7a60fU, 0x3ca85fb8bcfff7b0U, 0xbd77eb4c3e223109U, 0xbd440d8c3d965feeU,
  0x3e16e289bd480330U, 0xbde95b943e1a5adfU, 0xbe1cad3b3d47026eU, 0x3db6c11abdbe3c7aU,
  0x3e206713bd21952cU, 0x3df0240f3dae3ea2U, 0x3e11b1dfbd4be6feU, 0x3d59ed003d4ddd1cU,
  0x3e2562213babc286U, 0xbd51c074be0264d2U, 0xbdd8fa55bd4858deU, 0x3d8d6620be092becU,
  0xbe152e51be260b67U, 0xbe3d6f643e23dd0bU, 0x3e12301d3e08d53bU, 0x3e16d63bbe28b390U,
  0xbd9df66bbe07c658U, 0x3df2f96ebe0901adU, 0xbdca3dce3d23e0e8U, 0x3df04ddabd39822cU,
  0xbe18ba6b3e0d4c35U, 0x3c0b40503dcece49U, 0x3b16d1803d2cc720U, 0x3d96a0ae3dff06b6U,
  0xbcfb4114bdee015cU, 0x3dac16513e081905U, 0xbe320108bde5c632U, 0xbd8536753d02a698U,
  0x3e1884f9bdf29d8aU, 0xbe19935abe02a317U, 0x3d5c11acbdcf0256U, 0x3dfbca5abe008559U,
  0x3e1a3445be0b95f2U, 0x3d985433be24289aU, 0xbccad6ecbcdce326U, 0xbe2fcd49be2a4d5aU,
  0xbe34035b3c8cc380U, 0xbe2b8750bdf3118dU, 0x3de5ec3abe2e0af7U, 0x3e14dd69be2cf25aU,
  0xbcfc2fa53d586cebU, 0x3b951cc03e0026adU, 0xbdf685233e1e480bU, 0xbcf979933d277c97U,
  0x3e1f2d413dc540d7U, 0x3cede9503de1ee2eU, 0x3e26d8833ceb80d9U, 0x3dc79dfebe08578eU,
  0xbdcdc139bc5bd94bU, 0x3dbca9f63d620de8U, 0xbd744d1e3db230b2U, 0x3dc8f73fbc39c580U,
  0x3d31e0713e0004e3U, 0xbb3c67ae3c1c78b0U, 0x3e36618ebd90951bU, 0x3d913099bdcf65aaU,
  0xbdbd091b3dff5d4dU, 0x3d9136febc1a5160U, 0x3bac3c603de76d35U, 0x3e0eca7dbc7c5d59U,
  0xbdd66400be12c82aU, 0xbdc10d9dbc9ac618U, 0xbe0e1fa23de161d2U, 0xbb13023e3c71fb80U,
  0xbd9c79f4bd130ba0U, 0x3dce51a6be246104U, 0x3df145ac3d5285a9U, 0x3df0dd8bbd6b2268U,
  0x3ce099b03db46042U, 0xbdfb4e76bdae3bcfU, 0x3d546d8c3dc121a1U, 0x3d7c4d20be238456U,
  0xbe310fa2bda8e67dU, 0xbe3016b8be4de945U, 0x3de3ae2bbe143a13U, 0x3cc20fe83d87ef6eU,
  0xbcec46b83b23e200U, 0x3d78723f3d07b220U, 0xbd854b023d2418fcU, 0xbd5379783debcef2U,
  0xbe0f357cbe0845b8U, 0x3e1db0e5bd3b44d8U, 0x3df30f72be28efcdU, 0x3dca6f363da361a2U,
  0xbdc1b9883df7df8eU, 0x3e04df943e138772U, 0xbcd720c03daa4112U, 0xbddcd482bd1d33b4U,
  0x3da8cae53dd11508U, 0xbcdd10883e001634U, 0x3cd81948be2fcbf8U, 0xbcfce698bda590c1U,
  0xbc52b3b3bd1051a0U, 0x3dee1067bdee3ecfU, 0xbe17d5b43dafe2f6U, 0xbd15a679bdc533aaU,
  0xbcddcab83de23eb4U, 0xbe2097263df5ff15U, 0xbe34e0aebdda1b71U, 0xbe24078f3c9382abU,
  0x3ddb121fbd88266bU, 0xbb692503bd3d521eU, 0xbe428fb6be251ca2U, 0x3cd99ff83e03a7d3U,
  0xbd80122e3cdc53d1U, 0x3d708770be21449cU, 0xbc9e93df3da4eb16U, 0x3dee257cbe1e8827U,
  0x3cf6e3853d134736U, 0x3e26d8cb3db0b98eU, 0xbe17bdce3dff0d02U, 0x3df09ebabe1503adU,
  0xbe26e9adbe4d38c7U, 0xbdcc915ebe10e679U, 0xbd561f8abd5963d2U, 0xbc8d4c77be1e066eU,
  0x3d956d63bcbb1bc8U, 0x3c8fabbbbe19150dU, 0xbd6ed9583e03adafU, 0xbb885429be0cf77bU,
  0x3d38ba6cbdfeaa59U, 0xbe22ce5ebe078ed8U, 0x3d8d7828bd170cedU, 0xbded7066be41bc91U,
  0x3dbe7a9bbcdb6b5fU, 0x3dd1850ebd6b4d68U, 0xbd6de5ecbd3d85b0U, 0x3d964dcb3d81957eU,
  0xbdc748353e30ea71U, 0x3d52a0a1be1bacf0U, 0xbdb24b213d95461aU, 0x3d4b02d63d8097d2U,
  0x3e140481bdd73e2eU, 0xbe27d284bbd9e260U, 0xbdf95670bd718be4U, 0x3cae0ee03df76fbaU,
  0x3ddb0ef6bd93f45bU, 0xbe3319a7bcac815eU, 0xbe2372f33c13bc24U, 0xbd6d4d2e3d9eaa9cU,
  0xbdfb6ce1bda0954aU, 0xbdd33760bdd83282U, 0xbc8c12d0bdcd60f8U, 0x3d2db5303e25cdf9U,
  0x3dabce923e1086f7U, 0x3e011df0bcacee37U, 0x3dcd2fd2be1ebc36U, 0xbbeb9e603e2da913U,
  0x3e2827f33e04d15eU, 0x3d49720c3c1d3e80U, 0xbe0896633e09ed77U, 0x3e14beda3d5fb4c0U,
  0xbe1e314dbc04d2efU, 0xbd89e6b13e1da267U, 0xbe2f0f473dac402fU, 0xbcba4c803d6caed4U,
  0x3dd54f863d5710b4U, 0xbd4c0497be0f41eaU, 0xbda023993cde7c20U, 0x3e0c47fabdfd5ba5U,
  0xbbe298e03e0b7e9bU, 0xbb5f558f3d53bbc1U, 0xbdca871fbe22ba43U, 0x3e1a46073d9234f1U,
  0x3d8613babdfa6ad4U, 0x3dbd79b83dcb872eU, 0xbdc54244bdf6fbadU, 0xbd10a4f8be05f84aU,
  0xbd35987f3d81efc4U, 0x3e31d1533d16ee38U, 0xbe416ee73e2ea2f3U, 0x3d9bfb463ae6feb2U,
  0x3d217974bde00d77U, 0x3e0b8fc1bd9b28baU, 0xbcf2fc883dfe1049U, 0x3e32dba7be40472aU,
  0x3cafebf8be1f99b8U, 0xbdcdab0f3dde1870U, 0xbb1872c0bbab22e0U, 0x3deb4927be095fe9U,
  0xbd6f5e0f3e1a0241U, 0xbd3ab00f3d6d3654U, 0xbd13e50abe0964baU, 0xbce6fa22bd8a6ce0U,
  0x3c99bfc8bdedf2e1U, 0xbe3116143ac4e980U, 0xbe283de2bdc10cc0U, 0xbb940b80be289248U,
  0x3bcd99173d927249U, 0x3e1dcb5bbded5a2cU, 0x3e0ea674bd2ece0cU, 0x3d1436da3c932178U,
  0x3cb6e308bd8030bdU, 0x3d78cdf1be15a13fU, 0xbcaeb9dfbd92596bU, 0x3e01cab9bce44718U,
  0xbd1a7098be212c2aU, 0xbdae9bd23d85f19eU, 0x3cd2a5483d8d5d69U, 0xbdea83603cd039c8U,
  0x3dd2ca6e3df491eeU, 0xbdbde32fbdbcc1d1U, 0x3da12f43bcbae5f6U, 0x3e317ea13c2572f0U,
  0x3d9245323deb322eU, 0x3b2a5046bd643ee2U, 0x3e11503dbd11616cU, 0x3d466dac3d7bed64U,
  0xbb1d9b803db218b2U, 0xbd1154b13bd7a112U, 0xbe26bf8dbd98be68U, 0x3d615b28be21f488U,
  0xbe18cde93e1a3a32U, 0xbda1f9803ba6ad35U, 0x3d95be343cb7cb98U, 0xbe09d04c3e22f7e3U,
  0xbdc83acb3dbd10e3U, 0xbe2cc3fc3dc8af70U, 0xbd87caac3c155561U, 0xbd6521783dd1815eU,
  0xbd7e6a223ded286eU, 0x3c8fdfc5bc2d9fe0U, 0x3e163e893de06cdeU, 0xbda2804d3d038ccdU,
  0x3dcde8a63da63262U, 0x3e055062bd038a4cU, 0x3e05af13bce875e1U, 0xbdca9c5b3c892fd5U,
  0xbe207c61be244015U, 0x3c6049013d97eaabU, 0x3d0dbedc3dd8623eU, 0xbd7a61a43db14ffeU,
  0xbd8e0b673c2a9eddU, 0x3dcdaaca3de819e7U, 0xbe15550e3e18bccbU, 0x3cf99ab03e129ccbU,
  0x3d83e638bdfafc22U, 0xbc763d50bdd1fd05U, 0xbe28bfaf3d16d1edU, 0x3d5ea9a43d45b36bU,
  0xbde0290d3c506d8aU, 0x3dedef6e3d8194d0U, 0x3e28f43bbdeaddf4U, 0xbe2708cbbe340d95U,
  0x3e2125c4bcd46130U, 0x3c8d6e933e0be4d3U, 0x3d908af2bd86acb1U, 0xbdab94763d6d28d8U,
  0x3e011221be1afc88U, 0x3db62e803dee122eU, 0xbdacb8a5bdea53bcU, 0x3d327c683e3e6046U,
  0x3dcce603be1d40f5U, 0xbdf441ce3d8336deU, 0x3df15a4f3e1d6d7fU, 0x3d9f9e853be84d80U,
  0xbd3ec584bdb368d1U, 0x3deca0e8bcf29932U, 0x3d1b3446bdb60151U, 0x3dbb9aa63e011291U,
  0x3c60ed203cdb45a8U, 0x3da61ebf3d01b344U, 0xbdb574843cde42abU, 0xbd0569e0bda7f215U,
  0x3e347ff53e0400b9U, 0xbdba5bbe3d5cd015U, 0xbde128e3bd960f18U, 0x3d91c0b8bcb42ae3U,
  0x3d3435f0be133bceU, 0x3dc0920fbe130cafU, 0x3de90d123c458bf0U, 0x3e020a533cfb8360U,
  0xbe04007a3bdd1c40U, 0x3da6dd93be7c71c3U, 0x3d26b3e03e029d39U, 0xbd039a54bcf8fd18U,
  0xbe3141dfbd66d65cU, 0xba46434dbdbb7ab3U, 0x3e0d6cb73babe3a0U, 0x3cd52db13de36adeU,
  0xbe365d263dcde1caU, 0x3c2b58ef3e0955b3U, 0x3e1d07693e16d43fU, 0xbdbff2febdc71420U,
  0xbe757b1c3ca74b40U, 0xbcea4d15be02705eU, 0xbdc2dda7bce7e1c8U, 0xbe02fea4bab1eb3cU,
  0x3cd1c300bc24fdd8U, 0xbd7926d73d484ba2U, 0xbc916cd53d4ed51fU, 0xbe40ab79be37e686U,
  0xbe1ec124be23b810U, 0x3d877102bbdc00d1U, 0xbd2c9b203d31aa2cU, 0x3d9c53663ddfc34aU,
  0x3e1a6779bc5de5ccU, 0xbe131438bcc7127bU, 0x3da5aa41be1f5d08U, 0x3d4049233d4b214cU,
  0x3d10c4b6bd9c1dd3U, 0xbd3aca30bd65d07aU, 0xbcc3c9383d24b48aU, 0xbde0327d3d56eca5U,
  0x3cdfd6f83dffe963U, 0x3d0e58ec3e11d5b5U, 0xbe3123d7bdced241U, 0x3c275e293e0bac0dU,
  0x3e18e036bdff5318U, 0x3e1225e63c251410U, 0x3de57c9cbd0a9738U, 0x3d0c43f0bdf5759eU,
  0x3e0522913e1e3c6fU, 0x3d05c7833cc2b200U, 0xbcc374a83daf4f10U, 0x3e2be291bd68ca6fU,
  0x3d8ac3adbe22ede8U, 0xbddccc3d3db21db6U, 0xbe3b4916bdf5f9c2U, 0xbcc4284fbdcd5da7U,
  0xba5172003ddec7ceU, 0xbe1c49afbe295f48U, 0xbd144a0f3d301fc7U, 0xbb9449de3def9916U,
  0x3a7963003d28f8fcU, 0x3bc15dca3e3014a1U, 0xbd8efdb43de6a605U, 0x3e24f267be2b905eU,
  0x3d03232c3a0916feU, 0xbdbb53a1bdcfa203U, 0xbd9b6f4ebc743c57U, 0x3cd0e2e03e03791cU,
  0xba202c003d50f6c0U, 0x3d53d196bc3e2f50U, 0x3cb135983d8bbd42U, 0x3bb73880be0e38f9U,
  0xbca6dab8bdc45a36U, 0xbd0e28793e1ef403U, 0xbde50c693daed316U, 0xbdafb8cf3d20fa3cU,
  0x3c219db0bda9c227U, 0x3e1cf8e9be2e957eU, 0x3d84a46abe0360c6U, 0xbc914fdebcd603f8U,
  0xbe164ab8bd8861d0U, 0xbd36b989bdc4492fU, 0xbdbb9d7abdad912dU, 0x3e171c27be2764b7U,
  0xbde1e00fbbaef480U, 0xbd62bfbbbbfbf420U, 0x3dc67f6abd8c82f7U, 0xbda1a19f3e0bb34aU,
  0x3baf23e03d4caac6U, 0xbc921326be12c4e8U, 0x3d21c5adbdb6a3c3U, 0x3dc9d144bdd23933U,
  0xbe136863bc385600U, 0x3dbce5ef3dcf56a8U, 0x3e07bdc7be0812a7U, 0x3e0f56f13e290801U,
  0x3d8cd6aebdb0d58bU, 0xbd87cf2ebe388f86U, 0x3ddfe1a03d6ba46cU, 0xbe080019bdb69e06U,
  0x3c6666ce3e1ec7ccU, 0x3e12a37dbdde1feaU, 0x3e34be953db8686bU, 0xbe2d46d73cb20a00U,
  0x3d14e4983dc1cf5fU, 0xbdf234503d9e5434U, 0xbdb45b2d3dad876eU, 0x3e096779bd8ba264U,
  0xbd8356b2bd3fb848U, 0x3d29bb1a3e2474afU, 0xbd1e92ea3d8fed7aU, 0x3d502bbe3e08eaf7U,
  0xbd862d8c3e17611aU, 0xbc86ef3d3d17b318U, 0xbe17345fbe204854U, 0xbd863c32bda96d1eU,
  0xbe0bbbb7bd9af624U, 0x3deb6d86be23c81eU, 0xbdb6a3b23d7d8238U, 0x3d9e23a23d054060U,
  0x3e2aff4b3d4221f0U, 0x3cdf4f95bdbf48c2U, 0x3cfd9d31bd905679U, 0x3db03abb3dc13362U,
  0x3d24bd38be07f593U, 0x3dbc8facbddfa922U, 0x3d6bf3d8be2d071dU, 0xbd3d8e003d773b44U,
  0x3d98cd363d9d29d1U, 0x3cc3a148bc5b6411U, 0xbdbd861cbc0cc070U, 0xbe0ee157bd752baeU,
  0xbdf184d2bb1e8580U, 0xbcc81caf3bed4520U, 0xbe18436d3c3b9b10U, 0xbde779a5bd8c939aU,
  0x3c98e6e0be0e3a46U, 0xbc9081be3baecbf5U, 0x3cadd8c8bc382e10U, 0xbe12146abc7d2020U,
  0x3d93caa2be411f2aU, 0x3da9e6be3d381950U, 0xbddd471ebcdc4cd0U, 0x3e3752183e2f0767U,
  0xbb8ceb14bdeec014U, 0x3db80a523d0b9f02U, 0x3dc945febc11445aU, 0x3e134b3bbd038f48U,
  0xbe3d5879be16818dU, 0xbda5ede9bcbfe518U, 0xbe16fe1dbd817c5fU, 0xbdff1f4ebe1268aaU,
  0xbd9a5fbc3e1beee1U, 0xbd9671e7bdb8fcf0U, 0x3df874b73e07eba7U, 0x3d2bde2a3dc42243U,
  0x3ddc31023c1d3880U, 0x3dd8992bbd2bb581U, 0xbd0210bb3c6194e0U, 0xbcee6488bd81d7c3U,
  0xbdd6378a3d84e110U, 0x3d2e4fbcbe0474fcU, 0x3e09857cbdb1b0e3U, 0x3e089df7bd06a647U,
  0xbd7c5ae8be24fa54U, 0xbbf59320bda13414U, 0x3e2a8865bd66e962U, 0xbe14e3da3d16ff11U,
  0xbce1bad0bd7531aeU, 0x3dd0deeebd2de8dfU, 0xbdacf2793e0c15b1U, 0xbc828cc0bdfb69a8U,
  0x3d587a84bd5efd64U, 0xbd83a0e63ddee1baU, 0x3cab0400be1ef1e2U, 0x3dcffcffbe2efd7bU,
  0x3e2be0353cd5f122U, 0xbc4a27073da7da92U, 0x3dc4251e3c3c367cU, 0x3df6307e3d4e1f13U,
  0x3d32536dbdcc83e0U, 0xbb2e30403e20903bU, 0x3e4498c7bde56061U, 0xbcab16643e139945U,
  0xbdd4ff0fbe335828U, 0x3da223f13c83f107U, 0xba8fdb78bd9a0342U, 0xbd656cff3cf467a0U,
  0xbe0795a63e320e99U, 0xbb95a05cbc649140U, 0x3d8817043cb8f7f3U, 0x3dcf96d6bba71ba0U,
  0xbe062e98be1f9910U, 0xbde612a8bdf7f913U, 0x3e117eecbcb83d8bU, 0xbe042f643e133a9cU,
  0xbce4dbc8bd0f7c78U, 0x3d97fa5fbd9c3c15U, 0x3e18fb39be2e540fU, 0x3cca7cf0bdde662fU,
  0x3dbc34c23d8ec812U, 0xbc582d653e0c2e5eU, 0xbe2a2c843dabecbaU, 0x3c8d3ab8bda588ffU,
  0xbe27c17dbd9e159fU, 0x3c9f5ea83d3d99e5U, 0xbc4c1990be2040c1U, 0xbd93726e3d6e8af0U,
  0x3b949133be077f08U, 0x3d8a235abdc9bbb9U, 0xbd9a0daabdbc64e4U, 0xbd3618b83d8696f8U,
  0x3d420cf0bcb8fad8U, 0xbe2832cbbd18b2e4U, 0xbd971088bd937b64U, 0x3d4e77dfbcbf7ac2U,
  0x3d94af8abc7b6c61U, 0xbe3b7af53d83257dU, 0xbd5a50a1bd59e724U, 0x3e1e4d1fbe0dd97bU,
  0xbc9df348bde5fcd9U, 0x3df08bdabe155f6dU, 0xbe0a6dc73b69f400U, 0x3cb9ee703d899ac2U,
  0xbe18d15f3de212e8U, 0xbe21d5f93db2b2e4U, 0xbc6a4b80be2187b1U, 0xbe058acc3d8884acU,
  0xbd85ebf9be408626U, 0xbdaf59d03df40026U, 0xbc6d8be0be2afb34U, 0x3dbcaa563cc231c4U,
  0xbcd2fc703dba4296U, 0xbbe95da0bdea6c8dU, 0x3d9c13ba3e16d999U, 0xbd312d433dfe3e32U,
  0x3e136f83bc1b6000U, 0x3c8ed052bd8b2d14U, 0xbc4c1e983da3bc1eU, 0x3cdae8483d1add50U,
  0xbe1cc4b2bd9af0a4U, 0xbe1ddf38bb2f4900U, 0xbe2fb321bb733997U, 0x3b5e27403db01f56U,
  0x3e084b56bdb54afaU, 0x3c68cbd03e319c15U, 0x3e171fb5bd4b2e48U, 0x3db11652bd63e406U,
  0xbe1e99d4bde3fa51U, 0xbc85a7703dad29f5U, 0x3d09d471bda8d7e4U, 0x3d940022be33e227U,
  0x3dea88223b442e40U, 0xbd3c11bc3d8bff92U, 0xbce2ae38be235ddeU, 0xbdf6a97f3d739270U,
  0x3d294990bcdf9f2fU, 0x3b2667c0bd9dd745U, 0x3da4b20cbdaa57d1U, 0xbe2a9cdebd9abaaeU,
  0xbc9dd7183dc94302U, 0xb9ae1240bd77e12cU, 0xbe32f017bddd5fb6U, 0x3dea1fc2bd1d6658U,
  0x3e080d453d987252U, 0x3dcf9d1bbe331bb2U, 0xbd3a2038bdf1219aU, 0x3dfc15ce3e1a5367U,
  0xbd9f01febe077675U, 0xbba56ca03e0b4922U, 0xbd2f2a303d41aaf8U, 0x3d366384baf2f800U,
  0xbd89907a3e0dba3dU, 0xbe05a948bc980295U, 0xbdd699ff3ded17f9U, 0x3ce99d983d926a18U,
  0x3bf7bb9b3da897daU, 0x3ce415fe3d95a49eU, 0x3e31b8ebbdb74c4aU, 0xbdb6d8e5bdb70367U,
  0xbcf8e140be0bd4a9U, 0xbcd6fa8dbe352f4bU, 0x3deec63c3d5c629fU, 0xbd7f5e293e1a5358U,
  0xbdaeb355bcbe2b80U, 0xbe2216513db570bbU, 0xbe297f883d9a5c3eU, 0x3db0d3be3c0ba6a0U,
  0xbe3246923dfe9e41U, 0xbdd469ba3deefbf3U, 0xbd9d4f02bdac2f0cU, 0xbd3a117a3dbcb2a6U,
  0x3e0ff2bbbe1732c0U, 0xbde36288bda45a72U, 0xbd6b9c843d456107U, 0xbb67b440be32353aU,
  0x3e026d313e0f42e3U, 0xb9198800bd867369U, 0xbbfbdd80bc823698U, 0xbe0c6cf63e003739U,
  0xbd30ba2cbe0fac26U, 0xbdf134603d8f5b6aU, 0x3d990564be1ff99aU, 0x3d79c39fbe00ebb9U,
  0xbda88d1dbc2ae31bU, 0xbd3eaf78be03c0f8U, 0x3daf88f23e1234c1U, 0xbe336ec83d69b0eeU,
  0xbdda05493c31fc2dU, 0xbd4d157c3d5e9940U, 0xbe1d191c3d9c6886U, 0xbe1d622ebdd0c76bU,
  0xbcb3a610be2690ceU, 0xbdf043c33d0ef871U, 0xbdf4e5ebbd9cb283U, 0x3db57b40bc57a1e0U,
  0x3d81325ebe14286cU, 0x3e07659abdfcfeeaU, 0xbd9c6ae73dffd54cU, 0xbdc65b9dbdebd6f1U,
  0x3daf85623d86dbbaU, 0xbe3281f8bdc86c2eU, 0x3dd5036cbe167445U, 0xbd1880a4bc31634aU,
  0xbdd3faa5bd072b3cU, 0x3da395a33d0f8940U, 0xbe171e93bd8eec1dU, 0x3de82392bdb4f37eU,
  0xbda1c8ec3c93a880U, 0x3c6d7e23bcbe93d5U, 0xbc7fd4403d6840c4U, 0x3deac2663da3b572U,
  0xbe2c07023df0829eU, 0x3d01e83e3d8a4292U, 0x3e159cd33d84300eU, 0x3d2d6cbfbdbbf7c4U,
  0xbd36c2bcbdf1fe20U, 0xbe1ec19e3d811e70U, 0xbd8fd4993df837efU, 0xbc9645003e10ae5fU,
  0x3e075cf2bdad0733U, 0xbe5b24103d179238U, 0xbd34c18cbda2b7f2U, 0xbdef15e43c623e5cU,
  0xbe036a35be4fa666U, 0x3c946f31be5fe424U, 0x3d4088b93dd93d6aU, 0xbe7592073e05aef2U,
  0x3d005c1cbd7b43d2U, 0xbdb434c53d2e252eU, 0x3cb3daab3e0cac1fU, 0x3d6625283d97fffaU,
  0xbde27ea1bde74b59U, 0xbe348d5cbe478b40U, 0x3c80f92e3e205163U, 0xbd1e7c9a3d948c22U,
  0xbe09641d3d88b98aU, 0xbd81e955bd8654f7U, 0x3de15bee3e053a46U, 0xbddc85d03cb73e47U,
  0xbe000f6abc7d1a36U, 0x3e1d4a5dbd8f1bf9U, 0x3d823196be2eb84bU, 0x3d5c49773e045095U,
  0xbdbd20c03d826d4cU, 0xbde819e33dd791feU, 0x3e109a83be1f19d6U, 0xbd08fa153e285b43U,
  0x3d2fd2cc3decc6a4U, 0xbdf9fd983e3411edU, 0xbe189b57bdf4e47aU, 0x3d0c8960bde631f8U,
  0x3cac5b963ce05d9dU, 0x3dba931ebd0e22c8U, 0xbd0ca4d8bce83568U, 0xbe46e9b43e11cfa9U,
  0xbd7186f6be1f4903U, 0x3d9145343d871e4cU, 0xbe05e6343be44772U, 0x3d7ce52fbe0a346eU,
  0xbda8bda33addfb80U, 0xbdf6e1f4bd5d5346U, 0xbd124c64bdc077b3U, 0x3d622ea0bdfac9ceU,
  0xbdfd0350be0b1118U, 0xbdd49feebd283615U, 0x3d9af8ed3e01a7ffU, 0x3d1e6c983c4ee448U,
  0xbddc85053e30b0f7U, 0x3b819e7b3c375cf0U, 0x3df2802e3d4a7814U, 0xbe0c51c13d84a5daU,
  0x3d102abc3e183263U, 0x3cc677e9bd4aaac2U, 0xbd553f90bdc4fc89U, 0xbe230b1fbc9fa910U,
  0xbd97f860bce48d68U, 0x3e1fc0b7be0422d0U, 0x3daef23abddc42edU, 0xbe1e3c7a3c3fee30U,
  0xbdda5d403db2828fU, 0xbe277dedbd73766aU, 0xbda2fca03c826b85U, 0x3e1989ff3de712daU,
  0xbd795da6bd1e46c4U, 0xbe02ca9abda16040U, 0x3d4c2a283d1ea284U, 0x3d906e903dd59778U,
  0xbe319990bdbac2e7U, 0xbd14707e3db9dc27U, 0x3dbaebf4bdd6cc17U, 0xbe0145b8bd91d2e6U,
  0xbb7d086abe00f137U, 0xbe2935153d09d47fU, 0x3e114e2ebe0944beU, 0x3b97a420bd94bffaU,
  0x3d07b8d4be3559d3U, 0xbdbdf0d1bd1b6861U, 0x3ce0d34b3e14b899U, 0xbceaf31cbd957ca4U,
  0xbe2f8ed4be013e79U, 0xbdf37e18bda6c984U, 0xbd45013cbd3aade5U, 0xbe28f30f3c06d661U,
  0x3e2678bd3d9e6aceU, 0x3d27b634bcfd26faU, 0x3cf2c230bd99c880U, 0xbddd3e68bd760776U,
  0x3e07907fbe2397a3U, 0xbda456d13e2fdb63U, 0xbcc83444bc1c1ca0U, 0xbd645f91be0a64fdU,
  0x3daa94123e015d09U, 0xbdadb0d13da28d86U, 0xbe0783663db42e49U, 0x3de192eabe0a02c2U,
  0x3e072778bcda0237U, 0x3dad94ce3d26630cU, 0x3dd998ffbe022328U, 0xbe409c8ebd85f61bU,
  0xbc9b3c483ddb1c3eU, 0x3d2aaf9e3dbdbaaaU, 0x3e2088dabdf51bd1U, 0x3d3cdd0a3e0b9a7dU,
  0xbd27b368bd9c44a7U, 0x3e049c8c3dcaba0aU, 0x3ca0a6d8bb9d0244U, 0xbdb1c1813b539680U,
  0xbe01ed6b3db51375U, 0xbcef23d0bcc02053U, 0xbe1998913dfabb0aU, 0x3db7af0abe8241f0U,
  0xbe2d9cf73bef78c0U, 0x3cef17e2bdb095faU, 0xbdff47943cba2160U, 0x3e29b2393e0565e5U,
  0x3d82b5aabde271c3U, 0xbe2682a43e6c01aeU, 0xbdede118bdb5564aU, 0xbe0d30fdbdc65fe1U,
  0x3d301c40bd86eb3dU, 0xbe1827b1be041ce3U, 0xbd4c8360bd87a0ffU, 0x3d1010fbbe2b843fU,
  0x3d114a483c81543bU, 0xbddc166fbc8cd2e4U, 0xbdd874393e0a4a8cU, 0xbd8b4b5fbe1921e1U,
  0xbe2c19debd6528c2U, 0xbd9244773d7d55a0U, 0x3caf7ee8bddce36bU, 0x3ddab7d03cc4090bU,
  0xbdbe1c3dbdad862eU, 0xbce93b6b3e00ed1fU, 0xbe02ff67bd36b715U, 0x3da1264c3c380433U,
  0xbd9e4ff3bcc4c770U, 0x3dc6ce0e3d32e47eU, 0x3dc254983d761d60U, 0xbcc590f8bdc9433fU,
  0xbd56fdbf3d18684bU, 0xbd23adc8bd5cf4e0U, 0x3d8b79f23e167317U, 0xbd84fdedbe288665U,
  0xbd02766bbcb60ab7U, 0x3cafddd8bd42cba4U, 0xbc956a38be07ae95U, 0xba2c7500bb9b81ecU,
  0x3e24e4c3bde51909U, 0x3cafca20bd8dc102U, 0xbd95986b3d132a14U, 0x3e1ab352bd82c94fU,
  0xbdda03a33b795480U, 0x3e2d2ee7bdf7e7b2U, 0x3da0029f3ca9c320U, 0x3d26775cbd30030cU,
  0xbc935d083da90f9eU, 0xbddb4698bddec1f9U, 0xbdfe027d3d43808dU, 0xbe2a5dd1bcba70b9U,
  0x3dde9bcd3c3e7aa5U, 0x3cf3a790bd0659a0U, 0xbd566499bdaefb04U, 0xbd39fe37bdf1d14cU,
  0xbe032a31bd82999fU, 0x3c8188ae3d0f95beU, 0xbd9be1383ca8ac78U, 0x3d384c11bd3d1decU,
  0x3e0501e53c488330U, 0xbe0713c83cecb420U, 0xbe08eb54be09ebc6U, 0xbda654173d85c0b2U,
  0xbde79e43bd99dd40U, 0x3d692d843c60b28aU, 0x3d7b9eabbe4af930U, 0x3d876ae83e38f8f4U,
  0xbd2e07643de645f6U, 0xbd6c37a0be1f32ccU, 0x3ca1fb08bd62ec88U, 0x3caee300bd99ffe0U,
  0xbd3d7878bde531aaU, 0x3cff868b3d5f0faeU, 0x3e0796a5bccef618U, 0x3dc5badabddf17eeU,
  0x3e2b4ee53e4b0081U, 0xbe27f09f3df3fc5aU, 0xbddae1163e3499b3U, 0x3df462773da99f56U,
  0x3b19e7253d14c1e7U, 0x3d93d2aebe3fabb7U, 0xbde714393d8fc973U, 0x3e04ffcdbdf96d8eU,
  0xbcdcb79b3e31ea2dU, 0x3d766a8d3dfe11e2U, 0xbd8251f6bc6374a0U, 0xbe45f8c23af7ec04U,
  0xbe0f76493df8ad42U, 0x3dfdc016be54a742U, 0xbb94f1273cc00a18U, 0x3dfcb3453cc22b70U,
  0x3ce20c5cbe04564eU, 0x3e06db703df0b828U, 0x3dc232d3bd1e6e94U, 0xbd22bcbcbdbe75aaU,
  0xbc4db32a3d8f51d9U, 0xbd148220be4b4e24U, 0xbe374b46be270f71U, 0x3de2a77c3c75b9c7U,
  0x3e0e4e5c3da7465cU, 0xbb657e003cbc7098U, 0x3e2db1dfbd25cb35U, 0x3e017fafbdf85899U,
  0x3ccd86803cd64973U, 0x3e16c6f9bc6ad89cU, 0x3e1a0d2bbd6201c6U, 0xbe0c215f3e121395U,
  0xbe12119e3d05d7a8U, 0xbcf87dbcbd7b34b6U, 0x3b042b233df35436U, 0x3d5aca9f3d538d64U,
  0xbd40f0543d2a0e22U, 0x3d4db36abd3c24f0U, 0xbdd99004be14e839U, 0x3e242481be3979ebU,
  0xbdf118f0bd72b1f4U, 0xbd0ac52cbe001a08U, 0xbe1dacb5be29a825U, 0xbdd0648fbe09cdc2U,
  0xbd9f3876bdfab201U, 0x3e050429be294f13U, 0xbd7e50203e12d1a4U, 0x3b7912633e2c1d6dU,
  0x3d305fd0bd4d0fc8U, 0xbc878f14bdcf8cffU, 0x3df3540a3e04fa43U, 0xbe27da1bbe241060U,
  0xbe28debbbdfed1bdU, 0x3c76fab0bca4d00dU, 0xbdd48d703d8baf26U, 0xbcca1940be920adfU,
  0xbc061e203dd7d762U, 0xbe2b26dd3c15c4f0U, 0x3e34c9dfbe0108e4U, 0xbcc1a0e8bd8eb320U,
  0xbe17df843e1f1ba3U, 0xbd2a62cebd4ae427U, 0xbe024377bdfcb2d6U, 0x3e338d193e237c3fU,
  0x3d85439abe3a2b3eU, 0x3d992c4b3d708e76U, 0xbd6d26603e1ea951U, 0xbe1eca1fbe0d3abfU,
  0xbe2d164e3df2c3c5U, 0x3dfa9d47bd6933caU, 0xbddc29233e12112cU, 0x3dfaddaabcdc4900U,
  0x3e1c66ca3d81aafeU, 0x3dc911f9be104876U, 0x3dd6d636bdef9d01U, 0x3df17176bdfe5dd4U,
  0x3e22415dbcb7f0f2U, 0xbdcdd25abc8b8bc0U, 0x3dc04ab7bd7db5dfU, 0xbc87d48b3e2eb5c1U,
  0x3de9ea183d83c942U, 0xbe2b07fbbd2edd60U, 0xbd88a8263e295739U, 0x3e06f6ad3dab562aU,
  0x3e0888443e07ea94U, 0xbd2c7574bded19ecU, 0xbd3391a2bd4370f0U, 0xbe1a0e633db27628U,
  0x3e0f365fbd9b4836U, 0xbd79f0dabdff314eU, 0x3e1a97133e02dab3U, 0xbdffefbe3d8f28c1U,
  0xbd5b1486bd8eea00U, 0x3c3179903dfe7856U, 0x3d7f06dc3d578fc4U, 0x3e1da2343e07ba19U,
  0x3cf062a53da4448aU, 0xbd8443b2bd964cc6U, 0x3e30df8cbde4d4e1U, 0xbdb2997a3d043f58U,
  0xbe304c1e3c7313abU, 0x3deccb58be18d41bU, 0xbe09a491bd7778c8U, 0xbe0b81093da53935U,
  0x3c86d66bbdcbe64cU, 0x3e187e533e00f0bbU, 0x3e04a5943e04d365U, 0xbe0d53c63d806d54U,
  0x3dc8a75a3d9ef53eU, 0x3d30408cbd25ff90U, 0xbccb45c4be3ab5e0U, 0x3cb5fcf5be287a00U,
  0xbd42abbcbd0530bcU, 0xbca845dcbe0a99caU, 0xbd5c464ebde9b832U, 0xbe1a8b00bcbcee18U,
  0xbdfed56e3e020028U, 0xbdbb3f8bbdefab91U, 0xbe3dfb933dbec0f6U, 0xbd8838c8be84b640U,
  0x3ce362e03e0d45ebU, 0x3d89d22ebde8feffU, 0xbe19d614be09e68cU, 0x3e301cb93bb0b0e0U,
  0x3e0cd0473d37010cU, 0x3d084b783e56a679U, 0x3bfd15c03dc6d2daU, 0x3ddfd1ae3dca725eU,
  0xbe08bc8cbe29ee35U, 0x3c011d59be36599eU, 0xbbcdd6a03e214f77U, 0xbd336fabbe1b2f26U,
  0xbdbac3513e1b5384U, 0xbcf30b673d2708ebU, 0x3d8f47223b92a192U, 0xbe2539e7bcb7e470U,
  0x3d6f8f9bbdf22309U, 0xbcf82baabb59ccc0U, 0xbd9799b6bde07c56U, 0x3d55351cbe22bb8cU,
  0xbe1e7c493e06457bU, 0xbd152bd0bda91882U, 0x3e18f3033e10a8f3U, 0x3d9bf2523dd07a61U,
  0x3cce028d3e264cb9U, 0xbdbbe7c93dcf7b2eU, 0x3dc132edbe055802U, 0x3ddc8ff63d453960U,
  0xbe162c19bd745902U, 0x3e0882cfbe184872U, 0x3dc3b5723e16dc7fU, 0x3c6e0d793d9dc189U,
  0xbd703e1cbc1fafd7U, 0x3e1c4ffb3dd1778eU, 0xbe29e908bc986b33U, 0x3b8eb1803bbca82aU,
  0xbe15084abe734769U, 0x3e25b1973da171b0U, 0x3e09ce7fbdcb2847U, 0xbd360037bc062ca0U,
  0xbe23411abd8aa167U, 0x3c615b45be33e1d8U, 0xbd6630abbe25352fU, 0xbddce0ca3d3768b0U,
  0x3cf142983e11ced8U, 0x3e0c75d5bd5e58dcU, 0x3c3273303c01e97bU, 0x3af4e5803d7b4e23U,
  0x3d0807c73de12ac1U, 0xbe07f40a3d841b70U, 0x3cda1ea23e32e47fU, 0x3e1f8cb6bdb18e10U,
  0x3dfabc92be3470fdU, 0xbe3cdcacb9d59e7bU, 0xbe2b343c3e0d0c65U, 0x3d892cf0bd9e2703U,
  0x3d9900f6bd2b6df8U, 0xbdb02b493cc76ca8U, 0xbd88dce03c68a3efU, 0x3cff5ce8b9b00600U,
  0x3dd64dfa3dbf52f0U, 0x3dac2bea3d3f004eU, 0x3e192f08bded072aU, 0xbda9a444bc54b28eU,
  0xbd5e223cbe00f0f8U, 0xbc9b91813d207090U, 0xbe1399b2bd90414bU, 0xbcf0cd683b879de0U,
  0xbe105156bdf625d8U, 0x3d6a62a03d1d0a94U, 0x3e1a4981be30933aU, 0x3e0d0357be152e51U,
  0xbd4351a4bcf072a5U, 0x3da8b07a3d80a5f4U, 0x3e220abd3dcefdf6U, 0xbdf66602bd7ea81cU,
  0x3e141c863dc1ab2dU, 0xbd62d031bde1cc38U, 0x3da4670e3d8c530cU, 0xbe1dd2ecbdb48798U,
  0xbd238745be007b26U, 0x3c1e6e253d7af89cU, 0xbdfc585ebd78ecd0U, 0xbe1f69e43df3035cU,
  0xbd5189ecbd9e1899U, 0x3e169de73d56785cU, 0xbd5fc0e93dfcb833U, 0xbd8b2b27ba10e929U,
  0x3d8ed0943c799760U, 0x3e0b32cc3c53e11bU, 0x3cc496c73d4e7464U, 0xbdd547453ccff178U,
  0xbc6f7e80be3c19b5U, 0xbd33f2543e1b0724U, 0xbda4b995bd8c619eU, 0x3cbbfd47bd331108U,
  0xbe191ab3bdbf12dcU, 0x3de82e0ebd2046acU, 0xbba7eb80b7887359U, 0x3dad45223d017f42U,
  0x3e2bc3ffbe185e65U, 0xbe204919bbb4aba9U, 0xbdc55f00be25d0b1U, 0xbb64656f3daca9baU,
  0xbdcd86e0be2d4fe4U, 0xbe4142b93cf75c50U, 0x3e1f36353e2dbc3bU, 0xbe1fb2043d9c0cf2U,
  0xbdd6c160be0c6702U, 0x3e08feaebb2004c0U, 0x3d9ad8463d1ae130U, 0xbdc8c124bca7bab7U,
  0xbe22146fbdd5fee0U, 0x3dda5452bdd5a61dU, 0x3daa94eebe1bb782U, 0xbdb71582bd23fb1cU,
  0x3dc9c07abe2c66d5U, 0x3dc567b5be506fcbU, 0x3ddae8eabdbe21e0U, 0x3d04892e3d8ea080U,
  0xbd9b8f973e34fad7U, 0xbd58475c3da53e76U, 0x3d8e7410bc4c87f9U, 0xbdd2eb12bd62ff8aU,
  0xbdd330da3dfba49cU, 0x3d5316e8bcdf237dU, 0xbcb574c9be3680f0U, 0x3dd71ef63d41d2ebU,
  0xbd5a2c98be2a3f17U, 0xbdfee5ba3d9df4beU, 0xbc3963903e1e683dU, 0x3da8338abe34e6d5U,
  0xbe0e7760ba729d00U, 0xbd799703bc898b9eU, 0xbdadc2eabd855258U, 0xbe1a3bc83c689c20U,
  0xbded74a4bd2f8b22U, 0xbd7477043cc874cdU, 0x3d5cc5f03a5f6f00U, 0xbe0675d03e1b57b3U,
  0x3dc6e41fbbe71d6dU, 0x3d3cbfabbd9c102aU, 0x3e1559ed3e01ce37U, 0xbd74bf68bd1d7fa0U,
  0x3dc6d70b3b7386c0U, 0xbe1e81ba3e21f30fU, 0x3cd770083d712b14U, 0x3d699e14bcd4a4caU,
  0xbde2bd343dcd052cU, 0xbc886320be15795eU, 0x3d481b323d0b6f31U, 0xbe23c0ce3ce1a1ffU,
  0x3c1e0974bd056218U, 0x3db13f23be113a13U, 0xbe2be4943d3f3b38U, 0xbe22a82ebd13a600U,
  0xbe3c2ec9bd8691a7U, 0x3d6aec7cbcded370U, 0x3dc536ffbcdf4bf0U, 0xbde57aee3dcdfc28U,
  0x3dcb43a7bd963842U, 0xbdf5e070be11eeacU, 0xbdb60f65bd00b045U, 0xbe0cc8483e08c6a1U,
  0x3d10bfacbe45e952U, 0x3bc66e40bde984d7U, 0x3e19fc5bbb8092c0U, 0xbe3e0f62bdc6efe8U,
  0xbd9980e6bdf5dcf2U, 0x3d3f01b23d4b51d0U, 0x3e00f9f2bd568716U, 0x3d28371ebdfa70f4U,
  0x3e32891dbdb8dbc1U, 0x3cce9079bc12fb20U, 0x3d9dd50eba9219d6U, 0xbdd25d5dbd647f20U,
  0x3d986b993dbd082dU, 0xbdf0f7d73e10c2b1U, 0xbda6a1f5bd69102aU, 0x3dc69ced3e08b30bU,
  0xbe2ed015bcde4c90U, 0x3e1d71c23d6f1860U, 0xbe096ee3be14fde6U, 0x3d81bfaebde2061bU,
  0xbcc1b2a83dde1abeU, 0xbc0619763e10c883U, 0x3d536ef43d68c6c7U, 0x3e2d8aa3bd918602U,
  0x3dd588ae3e077fe2U, 0x3c99de58be1637caU, 0x3da316ea3d73e1daU, 0xbde26ed8bdd021a8U,
  0xbdd28633bc8a9060U, 0xbb60d438bdaca216U, 0xbe06d7d6bd10d738U, 0xbdc4c1a0bd502610U,
  0x3da473163d537d00U, 0xbd934e183cec96caU, 0xbe307f653d5175e4U, 0x3e07ffb5be1b482fU,
  0xbddc43e0be21c13cU, 0x3d1b1b68bdbcffe0U, 0xbdb5fd633d07bd44U, 0x3de95db83d478c18U,
  0xbdb507febdbf5781U, 0xbdb47bb3bd43178fU, 0xbdb293a0be1f25a5U, 0xbd1f39843d172f00U,
  0x3df539a9bc73e940U, 0xbe2a8e173d1b75e0U, 0xbd404c483dcd04f6U, 0xbda17623bdb3f79fU,
  0xbe23511d3de0e62dU, 0xbd2453f2be208406U, 0x3c2cfb123e022d09U, 0xbd0d39793d28ef18U,
  0xbc81569f3cfb27b8U, 0xbdb5db59be30f046U, 0x3e093ef23d9a029eU, 0x3e0ce9d73e2d7553U,
  0xbc906bbd3d8729d0U, 0x3d41fb183d3558bcU, 0xbd4f66f2be1f8d24U, 0xbe0db18dbd90184bU,
  0xbcd121aebda06947U, 0xbdce9fad3e15db59U, 0x3b302640be2dbf3fU, 0xbdd0e75e3decd562U,
  0xbe0122e9bdeeb1fcU, 0xbdf7cde83e1bd3f7U, 0xbc1c8350bc4badb0U, 0xbd852a403d96a76aU,
  0xbd8ea81cbc827800U, 0xbccff0d13d6a38e4U, 0xbdbda01c3dd4ea5aU, 0xbd105926be297aefU,
  0xbe0038a6bdab9517U, 0xbdce62273db813a6U, 0x3e1685e5bcca621bU, 0x3db6fbca3d3710fdU,
  0x3df6faee3d4ff2e9U, 0xbdc1ac0dbe0f5e03U, 0xbe1b6f59bdb808a5U, 0x3df2da8ebd2cd8f8U,
  0x3d7aa8c03de3700eU, 0xbd4fd9c13d88103dU, 0xbd1b15903d66b98aU, 0xbde9e5193e17ade9U,
  0xbe15d3513c3b3430U, 0xbd689f91bd4a8040U, 0xbcd435103ce686d5U, 0x3e2bfb113e2439cbU,
  0x3d9b4732bdbe8a36U, 0x3e227169be3a6e5fU, 0x3da37e08be02ce80U, 0xbe0c531a3e5a29a2U,
  0x3e1925e7bd8912e1U, 0xbe2dd15c3d141880U, 0x3d807c5a3c3c13d0U, 0x3d69a224bc1cd200U,
  0x3e2181bf3da72c3eU, 0xbd85ddaebe11cf9aU, 0xbe228fe03dc9cad6U, 0x3d8d57083d007d10U,
  0x3da6c956be0df00dU, 0xbd25532cbdd3b69eU, 0xbe1e1101bd96bea4U, 0x3d9352d7bcb05408U,
  0x3d9af505be219b0bU, 0xbde00dc5bd9377fdU, 0x3dbd8b323de37a8cU, 0xbe241d093d2a1b44U,
  0x3d0e15f1be2468eeU, 0x3e10f5593dc234eaU, 0x3db27d523df7ed92U, 0xbe25f52fbe30a526U,
  0x3e1c23dd3e48e00bU, 0x3e1b7856bd57774fU, 0xbd92bff4bd9d3b28U, 0x3de4bbeb3d9844f9U,
  0xbc6aeb34be15937aU, 0xbdcc053fbd844984U, 0xbe200823bd9dc83dU, 0x3dd8a6a63e0d1107U,
  0x3d4fb34dbe19f655U, 0xbd8ef5a3bcf049afU, 0x3da93f543d9286eeU, 0x3dbb8206bdd40ac7U,
  0xbd3cd9a93e113e54U, 0x3da51526be3096d7U, 0x3dd565dabd5ffc9aU, 0x3dc73d123c15bf20U,
  0x3e1770b9bc839226U, 0xbdbdb938be21321eU, 0x3e10bc03bdad5731U, 0xbd8f0b143c676960U,
  0xbdc71cde3dabe872U, 0x3d226fdebdc65830U, 0xbe25119e3debdd0eU, 0xbe158a21be133246U,
  0x3dec724a3dfbb302U, 0xbd29cb303dc98cceU, 0xbb4bb3003da85e0aU, 0xbbc86b00be293253U,
  0x3c766ce73e10bbc3U, 0x3e1ea4ebbdc55b77U, 0xbcd88bdbbddd9abcU, 0x3dfeb13c3c8ad9d0U,
  0x3e1be71d3d094b24U, 0x3de7a15f3ca56712U, 0x3d95301f3e18bc7dU, 0x3ce239bbbded6280U,
  0x3dbff5d2bd0f3c58U, 0x3df6c2473c0a5d40U, 0xbd633e8e3cdb58e6U, 0x3d5d5a4c3df99766U,
  0x3dc68eca3e0195f3U, 0xbe1b1899bdae4fa0U, 0x3dbaa8c93d89e3dfU, 0xbe1e363fbe1cc124U,
  0xbe2ed365bd65bddeU, 0xbdd777943e2e67c5U, 0xbdfae682be0cd292U, 0xbb987b203da3251aU,
  0x3d831e18be229d4cU, 0xbd6d38e2be0f5657U, 0x3d0a1ca03d573350U, 0xbe0da33ebd967098U,
  0xbe1b8945bd436fa2U, 0xbe2debdf3dc16d9dU, 0x3d8bdc603d3d2960U, 0xbe2bb5153d77f36cU,
  0x3d68e5e3bb6c7d89U, 0xbe1f7a98bd3e6c0fU, 0xbd091a90be24b2bdU, 0xbb9738003ce55bc0U,
  0x3e22cbfcbdbf7c6bU, 0x3d38bca5bddfaccdU, 0xbd899b163d0387f0U, 0xbdc9a0a9be1bb471U,
  0xbd02603c3c2e5c02U, 0xbe38a829bd6c4fe4U, 0xbdfafa94bdf03b56U, 0xbe4a63aabd289c19U,
  0xbd92fc98bdc17cdaU, 0xbe074468bd874301U, 0x3de3690f3e1164ebU, 0xbdf8c0ff3d2ed240U,
  0xbd81b78cbdb8f072U, 0xbd094d003d687506U, 0x3d992a873e04a489U, 0xbe1626003dcd0b5cU,
  0x3db74121bd509ad1U, 0x3d824e12bc2c6090U, 0x3e288299bd035e22U, 0xbe11977a3d9a1b22U,
  0x3c6c6590bd2ab688U, 0x3cc4baa03e1c75b5U, 0xbe050d36bbd1e020U, 0xbe10e9c4bdd3ae0eU,
  0x3cc23ae5bdbf3f6fU, 0xbd9eac60bcc43828U, 0xbe03dc823e02e129U, 0xbd12e06e3de9d62eU,
  0x3d7360d03da2c23aU, 0x3d7a51e83d965c1aU, 0xbdaae2d73d806da2U, 0xbdfb6e2fbdaaba20U,
  0x3d4d21b23df26ffbU, 0xbe1eedc6be002032U, 0xbda578083e082c63U, 0xbe3cca75bdb9f5c4U,
  0xbd9700553dfeaab2U, 0x3df11a79be143514U, 0xbc879c193dfc1157U, 0xbd599ea33ca3b430U,
  0x3dde844e3d9b5f82U, 0xbe0e37d7bdcd6678U, 0xbd57e7723d328ecbU, 0x3e309ec93d8a715cU,
  0xbdaa5f1e3e1cb4b4U, 0x3d5dd418bdcad21dU, 0xbd81a57e3daf749aU, 0xbde959b5be17f049U,
  0x3bdf05e03d693dbcU, 0xbd39d50f3e1ff267U, 0x3daf0fce3db34a6aU, 0x3e072bd13d7fffa0U,
  0xbe25fb7b3b7dcec0U, 0xbdaa84b13e30f17fU, 0x3a9489803c7729e0U, 0xbd061698bd0308b4U,
  0x3d8ca910be53abe3U, 0xbd833a993dde4e46U, 0x3e2bb7733e13cb05U, 0xbd83a0083e22d943U,
  0x3d66463dbbcbd956U, 0x3c6e7b3bbdd47d79U, 0xbda546d1be40cba5U, 0x3d8a4476bd410138U,
  0xbe229f36ba6fcc00U, 0x3e0c5a0e3dcf6c3aU, 0x3d9e0572be05fc80U, 0x3e2af448bdc22706U,
  0x3d8e264c3d8c1f7bU, 0xbccd968fbdfd8233U, 0x3df861f1bd10ae0bU, 0xbc9f3e51bdf400a8U,
  0x3d9d259f3c84d8a8U, 0xbe1ba05fbe0b5dfdU, 0x3c371bb93e117ec9U, 0xbd4a1b38bdb19f52U,
  0x3da737fa3cbb1f1cU, 0xbda01e13bdc27275U, 0x3e31f1e73d705580U, 0x3dda0033bdef9abfU,
  0x3de8f83e3d858a84U, 0x3e2cc93dbd937cceU, 0xbe1c54afbe1369ecU, 0xbd9dcd303c81c7a0U,
  0xbabd8f80be4c3ab3U, 0xbe1ca99e3d29de0dU, 0x3e156ddfbe119edeU, 0xbc046fd0be10d8caU,
  0x3d79d110be324649U, 0xbe2b6f0fbc441630U, 0xbe06aef53e1b67afU, 0xbdec44033d7a1fd4U,
  0xbd2191d0be0c064dU, 0xbc65e9183cfbb7e0U, 0x3da8fc963d49f4f0U, 0x3dbb80663b3427b9U,
  0x3c1b00bf3daf2844U, 0x3cfdf800be1aea5cU, 0x3e35574f3e12f0c1U, 0x3d85737c3d2a3008U,
  0x3e186d3bbde27e78U, 0xbd9f54673defb22bU, 0xbd85fa313c03042fU, 0xbcc8f511bca69558U,
  0xbe224c1dbe103eaaU, 0xbcef6e6e3c3f4830U, 0xbd18abc83de87218U, 0x3d0305e0bbe49340U,
  0x3e2ae9fd3dba20dcU, 0x3ca37ed03d3066e6U, 0xbd63ac843cb5c62fU, 0x3dbbb8623dfda479U,
  0xbddc27043dfddfbaU, 0xbe31e9843d8f516eU, 0x3d7cf14c3e2698e7U, 0x3e17a0df3caf25d0U,
  0x3dd89a7abd89471eU, 0x3cf666e3bd42c6c0U, 0xbcb36638be30abf7U, 0x3cccdb883e0cf09fU,
  0xbd6de7f2be3058ffU, 0xbd160accbda313d7U, 0xbd07c4e83dfe3f52U, 0x3e13696ebce1e7e0U,
  0x3dcb01e2bb854cbdU, 0xbbd75a9bbf0f4859U, 0x3dc53b82bd781f69U, 0x3e1a90e33d936f20U,
  0x3ef6857bbdb4f367U, 0xbd9e8159bd4de950U, 0x3d6b28e83e080ea5U, 0x3c940ef63cfa7255U,
  0xbd9c6fcf3f28230dU, 0x3cbe37b73e376903U, 0x3c169cf9bbd8c774U, 0xbde70868bc176b3bU,
  0xbcdc6f1b3e2c7283U, 0xbe0de116bd20930dU, 0x3d45cff13c82f638U, 0xbd4386103d2b0800U,
  0x3db9a2babb7f7f11U, 0xbc9169b8bda0b0f5U, 0xbd9340cd3de44946U, 0xbd2c53703d365f82U,
  0xbd294922bc18a28dU, 0xbbf08c203e262cefU, 0xbd9f5f7cbe0b3a9cU, 0xbded50cdbd1b4459U,
  0x3bbe8080bed2bdfdU, 0xbe1ddd35bd2ece8aU, 0xbd89727f3e2ab795U, 0x3def9fef3e0c847bU,
  0x3be515c13ce720d8U, 0xbd0434273dfe8fd6U, 0x3e7545483e1b7d89U, 0x3e746325be2e21a5U,
  0x3d1a4a74bdad4ac0U, 0xbc504ba9bda2a64bU, 0x3db8002a3d3fd496U, 0xbe18f2f2be4f4450U,
  0x3e06ae693b40b0faU, 0xbd80f3b33c62a050U, 0x3ed33f153dbe41daU, 0x3d0729b0bddd4bceU,
  0x3d9751d23e18f763U, 0x3e003e343b165c5eU, 0xbd0b11dc3ddd0874U, 0xbd8160f5bdd0731eU,
  0xbe0e3c7f3dc95e2eU, 0xbe0bb5643e184c21U, 0x3d757bd83c10363cU, 0x3e2a8159bde69fa3U,
  0x3e031f55bd8f0d32U, 0x3c477d30be2cbf47U, 0x3db2d6013d9ec344U, 0x3d0b4b7c3d734a1aU,
  0xbe0111b5bdc20810U, 0x3ed0ebf53e27ef93U, 0xbdcab7eabdc09ff8U, 0x3d2064e4be12d4b4U,
  0x3d279a683d440028U, 0xbdf7a532bdac6c2eU, 0x3be46e603e269a57U, 0xbcaec0a0bd543c30U,
  0xbe2ba1023e07aef4U, 0xbcb20ae03d6e256fU, 0x3d82542c3c676770U, 0xbdd89f6dbad89180U,
  0x3d7347423dc58501U, 0xbcee46813e88dd25U, 0xbdf65286bc9663e0U, 0x3e0ad4abbe0382b9U,
  0xbecb5a863e1ad00bU, 0xbdae7e8ebd6db8a8U, 0xbdb8c6ae3ce533a0U, 0x3d87913ebc1c43e1U,
  0x3e07116fbf2b5faeU, 0x3b6e3e1c3d8b6d26U, 0xbd8a4b5c3db85b1aU, 0xbd9ce5c3be44f8d3U,
  0x3de656dcbdb411d1U, 0x3eb049c83d7f4a4dU, 0xba5960ddbda10634U, 0xbcbb44703d5e7b28U,
  0x3e05c64c3c9e6a03U, 0xbdb1f5903e1d4d1bU, 0x3d9b44b43e00c9e9U, 0xbc95900dbdcfc733U,
  0xbd848be13c987106U, 0x3a57b9003daba77aU, 0xbe223c56bdfdc815U, 0xbe3097d8bce68261U,
  0xbe33cae83c418d34U, 0x3dd3e04abc197daaU, 0xbe24af46bc6c19e0U, 0x3dfc3350be0754daU,
  0xbceeb838bd6526c6U, 0xbe4d40173e099b65U, 0xbf023740bdd471dcU, 0x3d3dfe04bd8b4b76U,
  0x3cbacca8bd389f1eU, 0xbcfef6d6bd087400U, 0xbdb5499bbd20c393U, 0x3dc3de463c4484e3U,
  0xbe313be33c399852U, 0xbe18278a3da8351aU, 0xbeb7a192bd9a6772U, 0xbda570af3bba0800U,
  0xbdc019883e349a79U, 0x3d87dec6bdca57a3U, 0x3db15adbbda14290U, 0xbd997c51be248d7dU,
  0xbe04e8773d3f12e8U, 0x3e07d899bdd1066aU, 0x3bc8d8403d1474b2U, 0xbc828c00be27049dU,
  0x3dd4e6de3dc21c23U, 0x3e07c72fbe0335c8U, 0xbd871cb63dd469dfU, 0xbd84e6b53e9a2cb3U,
  0xbdd429943d4147a0U, 0xbe0419743e1584c3U, 0x3dae5a363cd35e18U, 0x3c0f0fe03e27e7bfU,
  0x3e236bc1bd6510daU, 0xbc6c9ba6be801b9fU, 0xbdacfd4d3d468610U, 0x3d4551183e233fffU,
  0xbe035b6a3da363feU, 0xbbd308603c8b9ac6U, 0x3db3df96bdf43180U, 0x3e3772523d4f6650U,
  0xbdd5e21cbd1761b0U, 0xbb9c951bbdab3a59U, 0x3d9bb7963e425198U, 0xbd8bd8763d811374U,
  0x3e9db0e43c0d6f10U, 0x3ddb45ea3d8cf194U, 0xbe1bd5053c9086d8U, 0x3becd628bb721adeU,
  0xbdbbdf753e8e8feaU, 0x3d83beba3df09430U, 0x3e36d1023d17d934U, 0x3d931194beb46330U,
  0x3d8b6c35bdf0adf8U, 0x3c1218ac3de25cb1U, 0x3bbe02983e296941U, 0xbe0a3ea93c0bbe80U,
  0xbd4fe537bde01722U, 0xbe0c74eebd95dbd1U, 0xbd72aa6b3d8428b8U, 0xbcc44fd73d18bcf8U,
  0x3e197e69bd2e2915U, 0x3e0f64133de8eb6aU, 0xbe0eee203dbb1e0dU, 0x3d5ae450bcca9229U,
  0x3cefd530bd8eb204U, 0xbd609dd63db29cb4U, 0x3d43da84bd17a758U, 0x3d1e4a2fbe30ddc2U,
  0x3daab50e3e0c7959U, 0xbdaeae5bbcf18ef8U, 0xbc1164cfbe06e59dU, 0x3cbe008bbdf6f966U,
  0x3bb331803da98082U, 0xbdc0fe69bd9b4abcU, 0xbdedda0c3d143b88U, 0xbd81baa9bda24f95U,
  0x3d560b58bda22bc1U, 0x3c83ec503e2c43ebU, 0x3ed8acfd3dddc996U, 0x3e556c5fbe1150d8U,
  0xbdbe9231bbb8ed57U, 0xbc4f8211bd1a620fU, 0xbcaaf918bc951ed5U, 0x35817eb000000000U,
  0xbcf14cdcbcb34132U, 0xbce0d41e00000000U, 0xbd0316fbbd1989f0U, 0xbb0aed21bc93598fU,
  0xbcce33c800000000U, 0xbc91f98fbc8aac2dU, 0xbc7b092300000000U, 0x3cea7748bca585ecU,
  0xbcb745f6bca96a97U, 0xbcbec8b6bc63a43fU, 0xbcaeea3fbc9479cbU, 0xb95fc8b2bd139c00U,
  0x3ca9fe7fbc60677bU, 0xbd743191bcb62b8aU, 0xbd758c8dbcc86847U, 0x3d791f7eU,
  0xbcc0893cbc70b877U, 0x3a787eccbc82e342U, 0xbc45a786bba8b312U, 0xbc89524fbc4228daU,
  0xbd63e842bb9d0aaeU, 0x3d047dadbcbb5d86U, 0xbce731d1bd829023U, 0xbca07f59bc8ab57bU,
  0xbcdd8b7cbcf1bf58U, 0xbce5f27cbd4e311dU, 0x3c730cc1bbacd416U, 0x3ab59b9b3d4bd79bU,
  0x3e531006be009342U, 0xbd029f733dc7a407U, 0x3e5d7e6bbe14e6a3U, 0x3dc6c3c8bd199420U,
  0xbdb3ccc8bcb1475dU, 0xbdd53ef83d21c470U, 0x3dfc7dcd3d03fdb2U, 0x3dfc96a3be75f1a4U,
  0x3bef1935bd595810U, 0xbe0f9a273d3965e4U, 0xbcfd4020bc01e9c0U, 0xbc9164fcbddefac8U,
  0xbe6da0cb3dbb1390U, 0x3dbd5c983c34c110U, 0x3dbef89f3d988052U, 0xbdffee1bbd2bf61dU,
  0xbe02148f3e7cc3e4U, 0x3c798234bdb9a8a7U, 0x3e2371f73e15d5a2U, 0xbd7cff70bc8ff7e5U,
  0xbd39c60dbdd76bbfU, 0xbe17f0eebda6d837U, 0xbd79ebcebdff9454U, 0x3e03fb30be8314b5U,
  0x3db546c5bde35da8U, 0xbda9f6213e197f73U, 0xbbc57978bdc53a23U, 0xbd7ec893bc6ac015U,
  0x3e189bcfbc169f3fU, 0x3e34e2093db7b45dU, 0xbe10d7713e562c0aU, 0xbe097dc4bbc7407dU,
  0x3d6a65f03e85f3c8U, 0xbe063772bd3eda78U, 0x3d6892dabe7df7d8U, 0xbe3a715c3e6300c8U,
  0x3e2742283cb8112cU, 0xbe5a38b13dd94c88U, 0xbe5ed5e7bd882d5fU, 0x3d14f897be038468U,
  0x3c3bbc7c3dc25c88U, 0x3e6306b3bd7bf621U, 0xbe0edaacbe2f4054U, 0x3e05a241be0c6855U,
  0xbd05751fbcd29018U, 0xbe211a30be4ec953U, 0x3e8dfc87be10f2ecU, 0xbdff59dbbdaed942U,
  0x3c16fbf83e2de494U, 0xbc47fcf4bd92745dU, 0x3e2129833df3cef1U, 0xbe0bd6403b31f87eU,
  0xbd96ee5d3e4f6ae9U, 0xbe9d59fb3d526979U, 0xbda28521be28a744U, 0xbdc644603d1b9038U,
  0xbc7a70e2bcc83e40U, 0x3c0d6595be416e99U, 0xbc50858c3d55e1c8U, 0xbe0436653d0df14bU,
  0x3e4655403e73c4c4U, 0x3e02ff14bd90ba72U, 0x3e7aebda3dcbfb04U, 0x3df81b87be313636U,
  0xbba86fa13da81ab2U, 0x3d47dbe23e0c4470U, 0xbe073723bdb0a702U, 0xbc01757bbe1df67cU,
  0x3e123e123da68102U, 0xbc26ea683d6b9ed0U, 0xbe0e3ef33ce8ddf7U, 0x3e21ce173dd36814U,
  0x3da85dccbde19900U, 0xbd7c22bbbd5c4122U, 0xbd187039be4b0910U, 0xbe2d162f3e044d39U,
  0xbc888e7fbd48f881U, 0x3dee9026be560969U, 0x3d68833e3dc1d5ebU, 0x3c8ae86b3e1790bdU,
  0x3d482ee0be07f7b4U, 0x3dcf4512bb8e97efU, 0xbdefb2123e1e600eU, 0xbcdc4b20be2f8c70U,
  0xbd0f91bc3e6d7e4fU, 0xbda06abebdecf830U, 0xbda56b033d8fbcfaU, 0xbe3c5cb8be3634a1U,
  0xbd8fe2e93d5c4d63U, 0x3c42acbe3e31c471U, 0xbe809572bcec7e27U, 0x3d6aa542bd86b331U,
  0x3e66f602bd8c373dU, 0x3dbb8aed3e2124fbU, 0xbb9cf158bd8dcf33U, 0x3da85f753e0cb73dU,
  0xbe4065dd3da6f9a3U, 0xbe45738cbe6d218eU, 0xbddabd6dbd7babb0U, 0xbd189bb0bd8166e8U,
